3d6f228e
bd6179be
3c0fb248
3ba27810
3b114b80
3da03395
3cf6a3ec
bdab642b
3d98bb75
bcd547b0
3bcea530
3c5f1458
3ce8eeb0
3cc43c08
bd8b653d
3d3db156
bce24842
bd8adede
bd9dff07
3c81db10
3adcf9c0
bdaf7403
bbdd0500
baa5b040
bd872b7c
bc9b3fc8
3d7c6202
3b828130
3d47f396
bd9a6e7d
3c7a1a88
3da6d703
3cb11378
bc230788
bbe63f30
3d989fd5
bbc629e0
bc22dd18
bd06cd56
3ae3fa80
bc87f2d8
3d9a8349
3d07b318
bd7e27ab
bc9dde74
bda115f8
3d25688e
3bc56180
3d841bd9
3da64e0b
3c9c1f84
bcd27154
3cc30b7c
3d84bcff
bc657f40
bd2db880
bce244e6
bd4ffac9
3d122f80
bd163dc8
bcd25714
bd5a7e98
bd0d2033
3d3580ba
3d73f4ce
3caa4d24
3d81d963
3d4b25ee
bd0c510a
3bba2b90
bcad0ac0
bd23ca6d
bd9b975d
bba91450
3dab77f9
3c682b68
bcd3c4e8
bd5e63e9
3d5e5316
bcd99dae
bd46d323
bbcd76c0
bb0fd480
3d51752e
bbd64b80
bd266a53
3c8df808
3d9fcccf
bdae92e2
bd8648c0
bb57fee0
3cf4ac90
bc64a3c8
bc8fe5a0
bc991730
bd9f1110
3d3ab776
bd46ed3c
3d80e675
bd0bdb00
bcb52838
3bc24b70
bb27e0c0
bcb1a450
bd87cd86
377e2000
3d8d6eb9
3dafa82d
3aed3700
3bd50ed0
3d8fcc8f
bd2c5c9f
3c6ecc90
3d8a914f
3c5baa18
bd031d41
bb01e8c0
3b6de9a0
bd92ea0c
bcb43d4c
3b0ed9a0
bccd87f2
3d967e8b
3da5c6eb
bd8e1bd4
bd82a1e6
3bc6c6b0
bd92cdce
bce17ca0
3d82ff69
bda62868
3d5c902a
bd90b416
3d89d677
3d3231b2
bd7f01a7
3d8bbe99
3da7a4a3
bda0a583
bc17a9b8
3d067cd8
3d9d9995
bb88d690
bd99c84e
3d0bc45e
bcb810a8
bda1cec9
bd29bbd7
bd64befe
bd326578
3d945365
bbe17b20
bab32500
bda77c03
bdad3382
3c9974d4
3d3603e2
bc2e7b38
3d9661b9
bba4eaf0
bd56860b
3ada5200
3ccb2a6c
3d9a85ef
3d396726
bbc23d20
bda201fe
3d8015fb
bda96076
bd0e2fe9
3d995363
bc89258c
3d597a6a
3d0070e0
bd520ae9
bc4f49e8
bd27f21e
bca74120
bd984a5b
3d95b69f
3d44792a
bd951d04
3da3c961
bcb939cc
3d8cf31f
bd5b4012
3be56c30
bd596c8f
3d537976
bd4aab32
bd958b34
bd9472dd
bda3af7a
b90a9200
3d9caadf
3d9d8fb7
3be1e4a0
3c3d03c0
3d6a6aa2
bd71c884
3d88063b
bc9a9c58
3d189232
bd07efeb
3da3b9ad
3d97c38b
bd931c76
3d98256b
3da9f8ed
3b095a40
bd9c3741
3d185dea
bda4d872
3d9dbd49
3ce889f4
3d69967a
bc43faf8
3da940e3
3d95020b
3cead8ec
bd8db518
bc2e2f90
3d0aadbe
bc598bc8
bc0c7400
bc1e37e8
bd8e89d2
bd9a739f
bc2909a0
3daa9161
bcd75c70
bd958341
3d920e3b
3d8f45db
bda95bf9
3a814c80
bd9b2032
3d71952e
bc80f1bc
3d920537
3d473b2a
3ab52540
bd7e5522
3c92fdbc
3d4ff2a2
bb929380
3d62c282
3d717c42
3d416016
3da0d0af
3ce4a208
3cfad514
bd4ad33d
bd7b4d3a
bd259eab
3d207652
bd201180
3cefe6d8
bd637a80
3cdcd6cc
bcdaadfe
3d68f752
3d04f512
bd8eaa86
3cabf22c
3d0432dc
bcfd7d00
bcb83284
bad9e080
bd69048d
3d82e5ab
bd9a6d90
bd73ce9d
3d7e8d2e
bd93558e
bd15837d
bd24684b
3d08ef42
bd914160
3bd5a280
3d56943e
bbdd1450
bd2d4da1
bcf5bbf8
3cb75820
3d08756e
3d1d4ff2
bd14b35c
bc154ca8
3d829a01
bc2b46e8
3d913037
3c8547bc
39d72a00
bd501957
bd022731
3d910bc5
bda36ca8
bd423388
bd564fc2
3d6f89f6
bc1eb328
3d14453e
3d8f8b75
bccf867c
bd8344d6
bd05d1e5
3c2c57e8
3d0b1ce0
3ba75490
3d12e87a
3c141be8
3e33cff4
bd3cdd61
3e622581
3b42cb8e
3d11249f
3de12749
bdc9ef47
3d6e9204
bd9ece38
3d88de23
3e05b1c0
be147984
395657bc
3d001fda
bc86bea0
bde9325a
3dc2b6c6
bd760a93
3df33673
be079ba3
3d9d84bb
bc0082c2
bc391100
3c0e06b7
bccee3f3
3d62d55d
3e19035e
bd407abf
3d473de2
3d5eca15
3dababf5
bc5c38cb
bdcd1b36
3d0f86db
bdec5992
bd4381c9
3cddd562
bd029b7e
3d50dbe0
bd8c4572
3d68e953
bda70166
3e3487dd
bd854f9a
bca8b216
bd9ebad1
3d8af059
3b7c97d3
bd96b045
3cf51f53
bd47f251
bd76ad66
3db980f8
bd3e9f2a
bd20166e
bd1a0eef
3e0b7374
3dd0fd81
3d5e3039
bd815dc7
3cf441b1
bd824f40
3dcea251
3d5b66d1
bd4b34b7
3cc887ba
3d2f9ff7
3a888c0d
3d0cf36b
3d33ae4f
bd0c3942
bda47a1c
bd8e8d1a
bd90a969
3d5f259e
3ddc67c8
3d2e7947
bdc48e0e
bc84d2f8
bc97bf38
bc80f104
bc5c2a5f
bce36e3d
bd8c68d6
3cecba64
3d8cc749
3d68bbff
bdb3e4aa
3da83a50
bd5bc52f
3d8038b0
3c1318d4
3cf068fd
3cccfc80
bc0be4c0
bd930c6d
bd9a99d4
3d1be63c
3d4c2c5e
bd67d070
bcb98e30
3d1d5058
bd5f68c4
bcec9206
3cad76a4
3d9a61b3
3daa1a55
3da4e67d
3d9c9073
3d876a15
bd90e2f0
3d9698f5
3d855f8b
bcfa96f0
3d6855ee
bcc47ae8
3d9ce327
3bb074f0
3c0ed3a0
bd3b62e7
bd1d9f9a
bc957788
3daa4bad
3d81eae7
3d87f3c7
3d0d94bc
bd75bac3
bd943744
bca6a9a4
3dadc9c7
bd6faba2
bcf405ce
3d77b75a
bc94b110
39876200
bd609974
bd4377df
3d596ba2
bd655b2e
3d627812
bd9c14ce
3c4798f8
bc9d20e4
bd8e5ef2
3da51afd
3daf81cb
3d8297c1
bd67bb4e
3c880518
3d2f5326
bcf19c52
3da6b193
3c3fb8b0
bd5a84fc
3d76f1b6
3da17fe7
3be1c700
3dad5ff5
3cc19e70
3cdbbdb4
3b5638c0
bd9fc3b7
bd6cd5af
bd0a1eba
3c7d6480
3cef9c90
3d822ddd
3cb55a04
bdafa2bf
3d136bc6
3b0733c0
3d4668a6
bd176284
bcce9d56
bcd73876
b974ba00
bd8884a4
3da2b2e5
bd9ce6a6
3d8d140b
bd10575c
bd90e967
3d4887b6
bd5d9ae1
3bdd7fc0
3cedf958
3d4eb96a
bcef80fc
3d9a7691
bd28de5f
bcd715e8
bc7c7108
bdaaa5bc
3dad6b55
3da39e43
bd9f5748
bd52e5d7
3d8af93d
bcb8e0c4
bcbb8b90
bd8f3604
bcec5da4
bcb0b950
3b934e20
3b9d65b0
3da84c21
3cd0ca9c
bcc9a362
3d94a83f
3d8d6cc1
bc96dda8
bdacf57f
bc758638
3d77fc8a
bd9d9cf8
bc6bce90
3a2e3980
3bf42df0
3d20cac2
bd770624
3cd26784
bd2a6d76
bc0f5018
3ced6f98
3b265840
3c871220
bcc880bc
3d859717
bd34a66f
bcbdd458
bd273391
bcb98e04
bd192e37
3be18070
3d0bff4c
3d777562
3c6e7e38
bccac73c
bd7d056e
bd4d99a7
3c9279c0
bc2f2758
bd46ed63
bc7ea258
bd91b80d
3b13f6c0
bd6a005c
3c083528
3c8c5cfc
3d557dfa
3cf3eb8c
bd71f0c6
bd2108a9
bb855400
3d93a6c3
bc9ca228
3ba377e0
bd947414
bcdcc9fa
3d78723e
bc84de90
bd6652f2
bda0ad0e
bd138dd5
bd15803e
bcb86a28
3cc9e8f8
bcf24d88
3d04c100
bd696de6
3d478236
bda10f91
387f0000
3ca66924
3cb983f0
3d5169da
3d874289
bd2283ad
3c892390
3c370980
3cc37f4c
3c2dc2f0
bd7cb3a0
bd04b535
bd007164
ba55d680
bd25304f
3d848af5
3d84fc6d
bd3c612a
ba9869c0
3d872e65
3bc74670
bd9a374d
3c8210b0
3d1e3b5c
3d3fdc9e
3c01e830
bd6e63b2
bd0932d7
3c18b698
bc0e9a78
bd9f80ae
3cc9b0a4
bd83c78f
3d861a7d
bd64fd7a
3cd94e80
3cdfcc04
bcdae016
bbe589f0
3c09c8b8
3d94bc4f
3b2a9f00
bd31aa3b
bd8e3e33
bcf2ce60
3d5da01a
bd0d07d8
3cb41d6c
3d178e2c
3aaed480
bca869b4
bd4bb28a
bcd6a8e6
3d799abe
3d2d9796
3d7c007a
3d2b87be
bca740dc
bd049705
3d11cfe6
bd6435c8
3c855b18
3d99cabb
3cc1f244
bcf5b2ee
3cf73cd0
3d67d6be
3c8f93a4
bd5c1131
bd3793f1
bc0a7a18
3d459a1e
3d53c5c2
bd6ec730
3d6aa606
3d0188ca
3d79d2ba
3c1e7e80
3cb09c90
bd04002b
3d8df3a7
3c1ace98
3a72b500
bdafff34
3d7f4bc2
bc47ff38
3d23ea86
3d954fef
bd6fce78
bd4fe919
bc04a7b0
bd653690
bce7c7d4
bd39f561
3d0239a6
3d875fc1
bd90306d
3cf6c868
3d4f3306
bbc6d0b0
3c918434
bc0b3fa0
3d37a6fe
bd633d96
3d2ea9de
bd0fa4e7
3d920969
3c1b5cf8
bd96e0f9
3d202f6e
3d9ada91
3d8c531b
3d6ed9ae
3d6d74ba
3d28fef6
3d9e9adb
3d466676
bd4a7f0b
3cec8c08
3c3a8eb8
bce6a474
3d9b34df
bda96b17
bc7b1d28
bc3a8e30
3d5bd696
3d1df456
bd8a5b6f
bd420c90
bca738d0
3aae9280
3d76a7e6
bd30f399
3d92f54f
3c01f8b8
3d1f18f6
3cc53e1c
3dad8ed5
bdafb7c7
3d8ff505
bda5e407
bd75e3f2
3d56930e
3da9622b
babb47c0
bc97a390
bd61f27e
3d7be1b2
bd6a6864
3d8bfc1b
3ca5f77c
bcf22016
bd8d6047
3d29146a
bd9c0d62
3d06a60c
bd8d628f
3d9f076d
3d80716d
3d6f7caa
3cd55c0c
3ced2448
3d0982fc
3d4f2306
3a8067c0
babfa280
3d85a56b
3d0e00c0
3d9f572f
3d971833
bd712af3
bd70bec4
bce361de
3ca0bf90
3cfe1850
3d12b894
3d856bab
bce17e0c
bce8e6ba
bda42b6c
3cdcfe9c
3b2180e0
3b8b34f0
3d5d2ae2
bd036205
bd0835ad
3da68463
3cfeff2c
bba14d10
bd8518f0
3cb37ef8
bd52621e
bd84a8c8
3d7e6032
3d937825
3d8a49dd
3c166040
bd58f0f8
3cfe4d3c
bd97b283
bd821be0
3da2bb07
bd66487d
3d8018c1
3cd758a8
3d27367a
bda60dc8
3d95957d
bda610c5
3ca0027c
3d94b305
3d497b0a
bc6604c0
3a99f0c0
bd377af6
bd3f9e38
bd35956b
3cbee208
bcb07d94
3d0acfc4
bd4e6c78
bd6835fe
bca5853c
bd60eeda
3cc63610
bc2429e8
bda47c11
bc522428
3d88f187
bca00ea8
baa66280
bda9ac0f
bd82d761
bd19070e
3d7c65d2
bb1a87e0
bd20a31f
3b325560
bda53419
bd7223e6
3bacf4a0
bce07f4a
bd7980e6
3ca915f8
3d80b38f
bc85a23c
bc611ef0
3d35d09e
3d6fff12
bd215ae6
bd84478d
3d9f1656
3cd233ec
3d56b262
bc1c21fb
3d36d079
bcda4904
3bf57ad1
bd3758f7
3d0dec56
bd86fb02
bd4fc86f
3c462b98
bd9bf0b0
bb2570db
3d932b04
3c8a8c66
bcb8918f
3da57635
3b565681
bca9f1b4
bcaa1db3
bd0cae3c
bd0c3ff4
3d8c5a79
3ca0c918
bd41bd48
bce870c3
bd8b2ee7
bc2badc2
3d088a41
bd2d7908
bddfe837
3d8d00bb
3ddf67dd
bda2f94d
3db415cc
bdbcef5c
bbad7095
3c98cfd1
3da4756b
bda2549d
3e00c94a
bd3562e7
3dbb2fdc
3d18db0b
3ce7852c
3c868cf9
3d3510d3
bcb0fc90
3d4610a0
bd889ba0
3dad3523
3db35636
bd3216a0
3d417b18
bb801e77
bd1bccc0
be053301
bcd2aebf
3dfdcaad
bd9aad58
bd20d5cc
bd696eb5
bcfdedff
bd8aeb61
3dc782c4
be28818a
3de5843d
be14a339
3d10aa60
3dc4b18a
bb8b4600
be4ce3aa
3df93fd0
bb794180
3e54292c
bd61df76
3bfee7b5
bd3e241e
3c091dc8
3d2fc623
bd65c56e
bd9cbe81
be025bde
bdbf00dc
3dd5681c
bd86685b
3d852ff7
bdff2868
bdb8a490
bdd6c986
3d53567b
be1a2d62
3df35bc8
be0825f3
3c8206f4
3e122dfd
3c9e92af
bdd4f7bd
3d00f526
bd8d33b7
3dd4b3e8
3debf38e
bd48da39
3d81135f
be30354e
3da978d4
be5398c3
bd4b0d1a
bcf4fcec
3c637a1f
3e488a49
3d44d059
bdf25028
be46d72c
bd8213eb
bdcb78bd
3e17e7f4
be60da7d
3e1c895a
bbdceb1a
3d919a1e
3e17d7cd
3c30210e
bdfc753f
bdf3d16c
bd4b9389
3e5118b3
3e1ad6dc
3c933d61
3d376f13
be85a11e
3e6784b1
be319e54
be8b221d
bdf3ed30
3e92ec59
3e601fea
3d9796fe
3b80a801
be8b0e1b
bd2ff06d
be0c8a6b
3dccaf75
be1495f0
3e642f89
bd70d2ef
3d5f7507
3e131c37
bdcc9d27
bde7d5ec
bdfd33b0
bc3b52ab
3e56c89e
3e059d17
be475aae
3d9ea6eb
be6cd1e0
3e09a436
be676d68
be74eb13
be1204e5
3e29fef1
3e2806d0
3e73da9c
3d80dccf
be2d3e30
bc0f564d
be83950f
3bea2b3f
3c8cbf84
3e73723e
3e0244f7
bcc43400
3e4a5407
bd4b5e07
be3a73b6
be666bdc
3df01c5d
bcf46cb5
3e3b51ea
be57e1a6
3e50d744
be8c8f46
3e968463
3da40475
bdd30271
bd36782b
3e40705e
3d02a3d3
3e351729
3d06c6a2
bce706e0
be21e01a
3d844559
3e2b5410
3d850bec
3d2bf82d
3e7768bb
bc631816
3e02a045
3ddec2b2
be34fa65
be2ad306
3df45560
bd655588
3e688447
be5536ac
3ea8d2aa
bebe808a
3e6b0b6d
3b5515c7
be51bb93
3cd4326b
3e90e8e5
3d89679c
3e4d5203
3d5c0b4c
bebba405
bdaf202a
3db4da27
3dabb00f
be17e651
3d5190bc
3e87d187
bda3aea5
3e1ff726
3e0608ef
be9a7598
be16f519
3e27d552
3d861c30
3e3f5639
be4a42c1
3e14645d
be87145f
3e79b646
3d9ee2f4
bd5aed23
be097454
3ec91811
3dd7ad9d
3dc6856d
3db1a6db
be8314b7
be2e3fc1
bdad797f
3e838e98
be6c44db
bc0315cf
3e542b86
3cf1ac16
3e2c45bf
bd998eb9
be9fe5f4
bd11ffdd
3e02f11d
be305b41
3e46b38f
3c1951c2
be8b8631
3d02bf05
bd6fa79c
3cf4059b
3e367874
be996c83
bdd8b878
bd192b6f
be0fecbc
bb764521
3d13055c
be1fc94e
be2f9b81
3e4072f2
bd1975f8
3df7ecc9
be2bf470
3d849f95
3e22cf35
3c9063f2
bdc42888
be01cd7d
3d895a4c
be5e9569
3e6b9baa
be6c42a1
be19e14f
3de9fbdd
3cc3a57c
3dce3520
3dda1144
be8264ea
bda02947
3befab00
bea90679
3d5cc77b
bdba2226
be431a18
bdf45b81
3e21cbb3
be662c34
3dd31183
bd49964c
bd420024
3e598401
3e2addb9
bdc0c36c
be5b3fb4
3d568075
3e9c419b
3e5ee89b
be9d60e1
be1841c3
3dccda4c
3e71237f
3e42f80f
be0e8495
be53fc51
3d9e9b9c
3eb8f964
be99d3ef
3e4858e7
3e5ae841
bdd5a433
3e328a28
3eb66c7b
beb287fc
be85a71e
bc9f7cdb
be9942a0
bce54275
be04b26f
bde9e34c
3e774d6f
be914bbc
3eb89fca
3d970b04
be7dc389
3dcfed69
be96f2cb
3e4c8a71
3e4e445b
be5c8b09
be5ab3be
3eab5611
3ec077a7
be68aa0e
3e3a7390
3cdd4c57
bcb94984
bcf69f7c
3e10c28e
be84099b
bdffd478
3dca1224
be8187d4
3e73638d
3c26b841
be33be58
3e2c19a1
be3a9af4
3dcb3ffb
3e17ec03
be69d3b8
3e4434ae
be35ec3a
3e4d799d
be52d786
be3b6120
bea09c75
3e6c7585
3e560ac6
3d902ce4
3dbf04d9
be517d9b
be2e1cc9
be808c74
3d176beb
be18cf78
3e9b0732
bcb59c60
3de39c08
3e0338f9
3e89c146
be977631
be5c2176
3d92883a
3e6c3601
3d8cbf54
be3c517e
3e84d42e
be24cff7
3e63bd6b
be557702
be90bbab
be5c0dcc
3e85c2ed
3e660c00
3d46a968
3e269012
be535e28
bd3cc0a0
beac37bb
3e31816d
bdce084d
3e626877
bc8c36c5
bdba4f49
3dfbba6f
3e7f3ea3
beaca139
bd760141
3d33ee0a
3e49742b
3d468c6d
be4a1551
3e19dc8d
be823c3d
3de87cb2
be5ad48d
be585670
be740f30
3eb17e91
3e5edf78
3dd33dd2
3dcb7998
be91a122
3cc1763b
be68bde2
3e4af4b8
be1fd1b1
3e11dabb
3dc2ff0f
be04a07b
3e8c0e16
3e377084
be609d7c
be17a2bf
3e0fca9a
3e930969
3cabb3f1
be171f79
3e001be5
be5b4b8a
3d6e14c2
be59bc71
be701acb
be33fb99
3e86c8f1
3e5f165b
3d2e2a5b
3e00164a
be73ed61
3cdb6ae1
be047595
3d2bef5a
be20062b
3e0eb106
bd1d2d50
be0fa302
3e85299b
3d9b9c21
be139f6e
bdc62420
3dcf995a
3e01863d
3d8c8f05
3d820e74
3d7237eb
be3d84f2
3e3bc0d1
be002b89
be25e08a
bddd7d80
3e66d673
3e01da2e
bcea77e8
3db61d0c
bd9e3c60
bd47faf0
be0e75a5
3e29a7d7
be4c0827
3e7792b1
bdeb8ec4
bd05531c
3e3a397c
bbe1e849
be50f51a
bd540d68
3e4645df
3e0b8cea
bcdd5449
3cb6ec29
3d29e1df
bd2e1d83
3d8c739c
bdbe6790
bdde3d95
be33cc83
3df4a398
3e367080
bdf43f3a
3ceec07f
3d3d2d07
3d3a6b8e
bdfe2b68
3dab9bb7
be5ae369
3d8d81b9
3d9e84f3
bd753873
3e0b5ce9
3d33a70b
be4133da
bcd79e49
3e08f7fb
3cef54ec
3c9d2af8
3c9cc5f8
3d630a0a
bd99c13d
bd0f24ba
bd141bc7
3cc8b880
bb0e5da0
3d211546
bd6fbfe1
bc87af28
3da67249
3da61697
bd84ce02
bd44f8a1
3c2bdf80
3d25b2d6
3d1e7374
3d6ad8de
3d71113e
bd99d89b
3abe7b00
3bfaa320
bd66879e
bc215a80
bc2c7740
3d17d234
3ce1c6f0
bd531235
3d2739be
bd490fee
3d7c85ba
bd8123fb
3d17c24e
bd921e8e
3d0cc2fe
bccc6562
3daca609
bd98d544
bd3d40ef
bd57a11e
bc9a6ae4
bd16f8ff
bd316d9e
3c220188
bbd856d0
3d498eea
bd44b522
bbd48f10
3cf9ff54
3cebc92c
bd9d45ef
3da3f251
bc7239c0
bd8da19d
bca9efc4
bc07b228
3c801f84
3d86773f
3d33f51a
3d5404a2
bd8544c7
bd749e08
3b83b630
bcbdfe18
3b02fc20
3d9e8cb5
3d9f8899
3da99edf
bdaaa077
bd1ff1bd
bdafbd5a
bcd764d4
bd213928
bbeb50c0
bda4a14d
bc881028
bd9f3ce8
3d864fed
3cb29c50
3ce886a4
3d4a5bb6
3d8d590f
bc5836e0
3d1306ba
3d8e45f7
3d820567
bd80b85e
3c07b1a8
bcc2295a
3ca899fc
3b0b35a0
bb777380
bb57f800
3d9a2779
3d1b100e
3d434ee2
3cb8876c
3d26fff2
3daf6bd9
bda62fb3
3dadb6db
3d724056
bd8f00d1
bcc32448
bbe69f10
bd717610
3d34b6fa
bd10063e
bd13078c
bc734ad0
bd94c87d
bb6c4f00
3d2ab7c6
3d4a3532
bd8a9706
3ca4df98
3da4da51
3d6e021e
bbf54d70
bc6bbd00
3da48b1b
3d08784a
3da6792b
bd3020e3
bd9fdfef
bceee54a
bd8eee7f
3d94b307
bcfab242
bd85f6f5
baba5f00
bd0ae779
3d4391c2
3d40ac1e
3d4fa50a
3d87295b
3d94e9a5
bd44701c
3c9c6830
bda83234
bd488080
bd9d9be1
bd4c3b9f
bda0fa2b
3da22fcd
3d10c478
bd93202f
3d4ab882
bb3c0dc0
bd68fe3f
3ccbc064
3c8cec30
3d25b402
bd040895
bcc9db94
bd8dcef5
3ca2fb4d
3d815a54
bd18351a
bcb01d77
3d490327
3d59d6e5
3d63b2cd
3d070166
3dc076e8
bd43956e
bb917378
3b9eb038
bbf4bde0
bd9bab7c
3da4b042
3d324df0
bc9bfd88
3d8b8abc
bd3691ff
bd917e2a
bda203d5
bd0e2a17
bd19c97b
3d5472a6
3d8329e2
bdcc2531
bdec82a0
3e045219
bdd0561c
3da02a9e
3e511c0e
3dc9988d
bdcc40cc
bdf6eace
bd0eb85e
be6888a3
3dd2cf2e
bd4e11cb
bd4b4a53
3e0c8e0c
bdf4a266
3dbd9198
bdce32ec
3d8e2c0c
be3e0d69
3e139b19
3e5fbb7a
be6ce696
bd6ba788
3c8c25a5
3da4a229
3e000444
bd002253
3dd4d2ae
be4eafad
3e38081c
3e22fab7
bbbfab79
be1fc980
3d57f8f7
3e3cd01a
be2215f7
3d4c135d
bd4cc90d
be3ec657
bdc706d4
bd65dbc6
3da25450
bda268f5
3dbeb6c4
be4f5f1f
3da16aff
3e6d707c
be40dc3f
bdf42717
3e4d8c4c
3e338680
3e3be697
bdbc9b44
3df5d66a
be043f8c
3e19715a
bd74a159
bba11309
bd89eb97
3d38eeb3
3e72bd17
3d064b07
3e4cd6a9
bdd64ece
bdcd44fa
bd3a09a2
bd963367
bdeb67c5
3d1aac99
bd273821
3d5986a8
3d9a620e
bc0e13be
be39a6ac
bd8c6ddd
3cb3f6dc
3e438f1c
3d8e8688
3db2ded2
3dcceb77
be03454d
3e042e37
be07e213
be22af98
bda456de
3cd132b3
3e4ffc01
3d9d39f4
3e15f3e6
be2200f2
be3b6dd5
bdbf8dad
3e0e8c09
3bd1d0fa
3e827a1c
bd98a6e1
bd998d23
3db692aa
be43e1b7
be26ac12
bd3e2dce
bd5a1d28
3e406364
3da81209
bd635db5
3e0fca68
be3bdb02
3e651c11
be241858
3c0a974e
bd62971b
3d2ce1c4
3e6e293a
3d0e3277
bd8d8976
be6cb8d3
be4555f2
bde34987
3e68664a
bd1c2447
3e941ffb
3d4a8ebe
3d4ac0a1
3e036734
3d53d18b
be5f7f2e
3d1b51e3
bcfc7927
3ea33228
3e0b01ea
3dc29c1f
3e47e4e4
bdb20354
3ea750ec
bdb1d8ec
be583bc3
3c8df0f6
3d587294
3e978571
bda69b00
bd47e78d
bdfebd85
be851040
bca3f173
3e8a1c9b
be54e62a
3e37d326
3d281ed0
bd967536
3dbaacb2
bbbe52fb
be5ff1b5
3dd97387
bda9c899
3ed0ea42
3d982cfa
3e9b4c8e
3e268811
3e7d8462
3ee7535e
bc792002
3cf847e2
3c5d36b0
be1fbfb3
3e84f96c
be22bb7c
3d90882c
3ddf5554
bc9397fb
3c49f716
3eed510e
be52f528
3d396960
be82d1aa
bda97f05
be49f125
bb816b41
be898a41
3c9a7afc
be121e79
3e683053
3e379eee
3e9b7e94
3e36819f
3e2da6bf
3e6f3083
bda3b7df
3a08578b
be882143
3cf3dcaa
3ea08f8a
be2822de
3c386679
3e2be916
be2fa015
bd59e9ab
3ebd8369
be86ba39
3d691660
bebc2bd1
bde01ced
be13986f
bd036e27
bec615cf
3ddd0614
bd5921e8
3ec130f8
3db805e1
ba6f1c15
3da99ff1
3c715036
3e4f9b12
bd1fa74d
bdffdfda
be0d04d1
3e505b80
3ef9e376
3e3185fb
3b39c6b3
3ca2841c
be763fcc
be111964
3eb82b69
be004995
3e11f983
bcc9f9df
be6c555f
3e01a618
bdd889ec
bea0e0d7
3e083683
bd57ece9
3d9ebc51
3dcd7421
3e21d8c7
bd78845e
3d16c765
3cfe7638
3b7c1c00
be850016
be157d78
bcffac9a
3e7d5e7f
3dcf2b53
be1a8f3e
3c9c2248
be840f4c
bc442060
3e65986b
bd32a6da
3e1c28ad
3e1aecd4
be22cde7
3d2b7a37
be793780
be2091f5
3e61b2d5
3bdaecdb
bd5de0f2
3ea6fb48
3ec55458
beb7d5a4
3e26159c
be8f50dc
be3cabd1
be7e911b
be1ebc9d
3dec0493
3e6b6490
3e1a6fa1
be82dea3
bcf76ab9
be58b5d5
bdfd305d
3eaafaba
bd697739
3ed0e2e5
3d4508b3
be534024
3e2b43ec
bee09c27
be1ab0f9
3bf5ba33
be3a1a3f
3e229a47
3e8bbeb4
3e7224bd
be87013c
3db3848e
be463385
be1bc13c
be17a411
be15f726
3d19bb0d
3ea79304
3d436d23
be0e2918
bc353e05
bcb0b55b
3beba09e
3ee7b331
bdbf32db
3eacdf14
3d83c61f
be3afed2
3e09c01c
beb40693
bdf32ba4
bcd49367
bdbe11c3
bdd56bdc
3e45758a
3d99ce4b
be9726ae
3da53d6d
be69f04f
bea6438b
bd922ffa
be9ddb7c
3df0b831
3e39800d
bd2b46ea
be419127
bd9fcc8d
be834e45
be79ded0
3e9603f9
be0ef298
3ee75d18
bdb5c1ee
bdc7581f
3e8ca8c2
be62c6ed
be8d5629
be1c64d0
bd9f538e
be66bc8c
3d24e26d
bc06f640
be9ae17e
3cd2720b
bde3c51e
bea280bf
3dbc5cf9
bebafddb
3daf900a
3daec0a9
bd9df91e
3dd84be7
3db6abe7
bd79b3c7
bea547d6
3e805b55
bdc51f83
3e5c889c
3d5dea07
beadc933
3ee086cc
be74da84
be216cb0
bdb9c967
be467629
3dfbb809
3dd87db3
bc8eb63d
be7b983a
be213e09
bd4e3128
bec512a9
3dd1c494
bd3bea3a
bd1a20ed
3d18b32d
3d83c1d6
3e97e13a
be218308
3cc62b2f
be7eee87
3e8afd10
bb90d2f2
bcdae294
3e58d2e2
be1a27a3
3ea1196b
3dd8c85e
3c750814
be09b784
be9aae7e
3bb70525
3d4d44ec
3c6f18e4
be75d63b
be321818
3d63f002
be89ae8e
3e04ad41
be444f18
be0fa9bb
3d75abfd
3d869d36
3e8f26c0
be22d733
bd737c10
beaf23c7
3d8ba0db
3d90e3ba
bdbbf1e7
bdc10a6e
bda67e57
3ea623d2
3da3cc28
3ce0c6d5
bdbf98dd
bec127b6
ba94f1be
bd538880
bda001bf
3c185720
beeceaa9
bda96733
bec077d9
bd2206a2
beb37711
bd5b9a68
3ded2101
3dd94336
3eaedf74
be6533f5
3e22a5f2
bec356af
3e11cdda
3de60402
3e1fb5d3
bccd65a2
bd7670dc
3ebc5fe5
3e336651
be4b9c9c
bdf4ee4c
be332cbb
3d6e9040
be19c68b
bbcc2cc9
3bdf646d
be3348ad
3de855c6
be7ea56c
bddbef9f
be15bd76
bd370ebb
3cf37712
3dac96d0
3e0a12aa
bdbb5b9f
3e49b761
bde7fbf9
3e73ccda
bda6ab58
3e4c6b20
3d361a47
3d7089e1
3e50df39
bd48cbe5
be4a9bd4
be179967
bd96fd50
3eb05067
bdfc624d
b9fb5bc4
3e927bf7
be335d2e
3e888b72
bd359d76
be98102d
3c34e626
3c5172d6
3e455532
3e8fba28
bad9ed48
bd6b81ba
3e107fec
3cd7fbec
3e4d40aa
be5fcdf4
3e3b10fd
3e565903
be180825
3d325713
3d53f8a1
bd25bcf4
be06819c
bdad5b5a
3e4705f1
bcd68cfc
3d0cf493
3d9b180b
be9f4b1b
3d837079
be33b8bf
be9b7068
3d8e46fe
3e9528fb
3e6a1330
3ec181c2
3e07b48c
be38349c
3d84dd32
bd8737f6
3e26542b
be20a926
3e4f5ca1
3e2a96d2
be02b660
3e0b6120
bcdbcbad
bd067b84
bb973c0e
3c834acf
3e4d2f66
be452d2e
3e2b4bbc
3dcd500b
bdc1546e
3e1d1550
be01d391
bdb00739
be61da4d
bc9cf93c
3ea9bef1
3dafe3f8
3e51b84d
3c972344
be28f41c
bb934e63
3e31b5ac
bdf02f2f
3dc385ac
3dbff2aa
be5c317d
3e28d99d
bd42b913
beb581ba
3dfd5adc
bd17cc38
3e4abb2d
bd9ff24a
3e209841
3d28dc39
bad72881
3d7feb53
3d9bb3dc
3d805ca7
bde62310
3d564f18
3da3a9cb
bdc29dab
be03f1e6
3d2999f5
bdedcbb3
3e068b09
3e94d8af
bd49e9dc
3c9966a1
3dcd401d
be658a25
bd28f79b
be0ddf5f
bd899a63
3e213312
be00e247
bdcc2a4c
3cc55f23
3e390cd2
be1410ca
3e18e7c4
3bd649bd
3d419323
3e1de05b
3d47c124
bbf072e0
bdf7a494
be3e3a7a
bcc20ed8
3d6e32d6
bd87d5f4
3ce61b5c
3e04dabc
3d7a1ca9
bd8d7de1
3d8d7454
bdeb682b
be2a7536
bdbe36c0
3dfb1faa
bdb04b1f
3d130ebb
3c3c0030
bd6bb9c0
3d648efe
3d4d31c6
3c9e8bd4
bd456776
bbf17d70
3d9920ed
bd1c320f
3c00f4b8
3d8c217f
3b5b0ec0
3b968200
bd5df377
3b09ce40
3c83ae30
bda03d70
bd60377c
3d2b905e
3d33105e
bd50fdf4
bb9824f0
3c9c0e6c
bd874648
3d6d9922
bc0baf80
3d3203f6
bdaf9e69
bcc7bdd6
3cae2664
3d3c4812
bd83dfb8
3ceb84ec
bd499ec1
bbaa9d20
3d12729c
bca79674
bd934b8f
3d40b52a
3d2b78a2
bb05c940
3d9b3373
3d21e186
3d9d493d
3ba36440
3da89057
3c1577a0
bd62b9b1
3d1043fa
3d81b135
bda2df16
3d9d7fa9
3cb83ce4
3d6d59de
3c98c4e0
3cb7011c
3cd6e954
bc7ce3b0
3b9c61c0
bd8ff333
3d0c075e
3d5be006
bd73a898
bd4019f0
bd927c5e
3d84f79f
3d5cade2
3d7fa71a
bd89a6f4
bd1c9eb7
3c2fd980
3ba2dda0
3d80ddc5
3d611336
bd602e57
bc1a1b68
3c4a5770
bd561e13
3cfba320
3cd58690
3dac1751
3d53dbc6
bd98fdfc
bd246fe3
3d3a2f36
bd4d7139
bca610d4
3c108050
bda3a4af
bd859e91
3d8932f7
bd95c394
3c96ac28
bd25e944
3d9a993b
b79ee000
3d79365e
3ce44d38
3d5f783a
bd99e1d6
3cf63d80
3d0b7bfc
3d800ca5
bcadbad8
3dd01ef0
3d904c6e
3c932b9d
bd705cdb
bc9b4eb2
3d4077bc
bd867d11
3d28c90a
3d8c6c26
bcfa3c38
3d8a2cc2
bdacf1bd
3d476961
3bd4b52e
3c8fd4b0
3d0b65eb
3def5e2c
bd6ec701
3da11556
3d03e29a
3d19a757
3d11cff8
3c51d790
3d51204c
3c8e74c9
3d2b0d73
3de67a37
bded4632
bd8732a9
3e1deed8
be45e32a
3e242cd7
3d9cc55a
3d817935
bdada9f6
be318685
3e1f21b3
bd9a3606
3d6a86a4
bd5fbe7f
be0b6b98
3d744e17
bb0e95d2
3e474db4
be44046b
bbe82e2a
be6637f2
3e4d7611
3e10275c
be2f12e8
3daefc19
3dee3d1b
3e22ddf0
bdc3f492
3e53efbb
3ea7510a
be7b4d8f
3e69f436
bdd6e667
bcb7ae7b
3da3c1b3
bdb44c31
3e53597e
be3628fe
3c884d19
be47b1cb
be359e39
be482a95
3c810bdc
3e00ea10
be04566f
3e0435f8
be2b02b1
3df6d235
bd125687
be930010
bc3e82e5
3e19012a
3e1a09ce
be1c5e6b
3e1390eb
3d7125af
3bfe4fa8
be179889
bd720dc8
bdecb0a3
bddb9689
bc413244
3d2371a0
bdfebfb8
be1c8893
3d14dbab
3de8feae
3dc880d0
be74755c
3e999fbf
3cba718b
3e52e244
bd2b2ee9
3e12a43e
3d4f64b6
bd8b466d
3cbcac44
bb8c32b4
3eacbbe3
3d6a3b20
3d39e53b
3e13feab
bc47dba9
be183c04
be891c0e
be2f5792
be28efb1
bcd43cac
3ea950ae
3d88ef67
be7bcc55
bdc969d9
3d7958df
bc98b9cd
3cbab01b
3e2df054
3ea5a0fc
be144758
bd21892d
3e30f46e
3d95c39a
bdb6ceb3
3e1c78e6
bd5a2753
3ea65344
3db2dadf
bdee26af
3e44cf98
bcc8ecc6
be21cc08
be90aca4
be90346c
be715883
3d7ad0c0
3e17a335
bd02caf6
bd8a6dcb
be350f0c
bdfb462f
be00a4ac
bdfc8483
3df9a2eb
3e52694b
bda7ae20
3d509886
3e149fe6
3e0d311b
be4190ef
3d3f92f0
3e08b1e0
3e67afb8
bdb35657
b9fc2dc4
3e473781
3d5c4ce0
be11a479
be588a8f
bef24f94
be9ae83b
be3611c9
3ea9346f
be90aac6
be5744b3
bd6fd736
bec5bbdf
be34343b
bdc0324b
3e4fd4ac
bdbb13f6
bdc29fc5
be393c2c
3eb3a906
3d394b46
beb36775
bd54a1f7
bd5b9447
3e4f9ffa
3c047662
3e54eeeb
3e4c8b87
3e6a2155
bdc9cc92
bd9ac621
beba19f5
be6f2599
be40364e
3ea6bc1a
be3fc0bd
be2b3b4f
3e384432
be6b2d54
bda5cc03
bd60fb11
3cc9b1e2
bc3268e5
bca44a3c
be7ee2de
3cba7535
be3ba0e1
beb8843b
3c9cbf9c
bcc648fb
3e7965de
3ece1183
3e64e566
3e2f67f8
3e62caff
be21c61c
3d1c8f46
be8948c9
be7dd72d
be1d30ac
3ec176f3
be4694f3
bdfc3f58
3e9c9bc0
3c806367
3df5f6dc
bd9b2e0e
3e14aebc
bd4a5395
bd22bc61
be37e71c
bc64ab7b
be8843ef
be54f1c8
bdc4d48a
bd4b6e19
3e3d24fd
3e058e30
3e019c05
3e073fff
3e974a00
3d2cfd91
3d3ed516
be16623c
bcd3e505
bc87306f
3ee117b4
be04f4d7
bd84bd62
3ea2f494
3ca1d058
3dfcdae8
bd3d9679
3e379d3f
be0a5a2f
bde27b29
bea4f630
3e005494
bd709e6c
be706827
be1adaa7
bd44924e
3d67f535
bd5d46b4
3e64741d
bd877eeb
3e6b740f
be272e32
3dec749d
be220a75
be737fbf
bcc4d3ef
3e9e266f
be9ce63d
bc705847
3d8a4fe1
be779897
3da598b7
3a798ac2
3e528327
be26b950
3dae6f88
bef972a2
3e2dc2e5
3d9cbd77
be946486
bd96d922
3cdda2dc
3dbb4323
3d90f0ce
3e06a162
3e105bec
3e472d24
bc0fe4f1
bc9b2923
beb76648
3c29e1da
3d267245
3eec2a1d
be8ca517
be18b1d8
3df08fe9
be8dc6e7
bd70edb0
bc66ac6d
3e201d5f
3d3450cb
bd9adaef
be868eba
3eb66eed
bebcf119
be921e98
bda00073
be5f19b9
3e0e1dac
3d9716a6
bdc218b5
3c9ac063
3dd8b7f3
bc737485
bce84d82
bec79cb2
bd292d37
3e1375c0
3ea7bfbd
be13c6bb
bd4698ab
3e7ab413
bdbd727d
3caf1764
be0df2c6
3d9bcbe2
3d5a5853
beb5f0f1
be6aaa79
3e727182
beec94da
bdb8d6cd
be2fce6a
be013521
3e0d151d
bb0dbc18
bd9a6187
3dbcce9f
3db803d1
bd965ffb
3d0c0fc5
be4dcd3d
3cb49b33
3e00f94b
3df3ceda
bdcda1f5
3d8aee88
3e509f6e
39c9d04e
bd073408
bdbf2e35
3d2860cf
3c758afe
bec9f23c
be1f4c6a
3eaa7c67
bee6678b
be64b986
be647400
bdf3c6a2
3d6bb0ec
bd4505d8
3dac659b
3d8f6eca
3de7852a
be248153
bc88d7e6
3c90e0fb
3c72cd0c
3d9c578f
3d9e0648
be7930b0
3b8be2a2
3e5fa85b
3d441b53
bd19e97a
3d4aa08f
bc2f0e51
3d6238cb
be9d89bd
becf3ab0
3eb449fe
be6369e7
bc8e44f6
be621fc4
be821952
3dbcd211
bddd279a
3d41a23f
3dbafd4e
bd097312
bc9211e6
bd22baca
3ddc2a25
3dd6994d
bd9d70b4
3df490af
3d15a7fe
bda46125
3e04904a
3e3b5908
bb62d7ed
3d52c1ed
3e1b3afd
3d8ef592
bd69ad54
be4c8a5f
3ea1ba95
be0c205d
bd0f3470
be9e2860
bdc7efc0
3d4fe4e9
bdce824a
3b712190
3d0b7bf4
bde4b65f
bc670933
bea162d3
3df65f27
bd7a9a6d
be03a4c6
3dd0afe6
3b626a70
3be707e1
3d02d92f
3dd8796c
be2b4539
bd5fc071
3e2205bb
3e3fd971
bdf7d2af
3e17098c
3e9b410e
be644500
be251ade
bea50ba2
3be66d36
3e539b1c
3e24ee29
bd6958c2
bc9cb02f
be6f9adf
3d8cc5b4
bea2f1b1
3e63ae36
bd97b9d2
be1af62f
3e31c98d
3c83395b
3c881882
bdb79ffc
3e453ae5
be102e69
3da00f9b
3e1ed36c
3e01e092
be135024
3b9ee5de
3e1e82f2
be5300a4
bc07e213
be7350b5
3d5182da
3e52227e
3a193099
be430680
3debe000
be2a1d3f
be033b73
be4696ea
3e25aa44
be8906f5
be17fc37
3dc26497
bdd1b318
3da459ae
bda8ddc6
3e55b02a
be5944b2
bc00782c
3e03f1b4
bd1799cd
3c3c9aa6
be00a007
3ea1b619
be0a6f58
ba1a574f
be8a36c4
3d97f598
3e5c7ae5
3cacdcb2
be596169
bd0735bd
be0e76a4
3d035b41
be8c7be2
bd072ea8
3a4b0db1
3db309a5
bd8611db
3cd95cfb
3e83c9fc
be0c3db4
3d9adce3
be7127e1
3d630e84
bdc8d768
b97071c0
bdcafdd1
3c7a8156
3d652af2
3e330048
3e892a43
be428774
beed2557
3dc996a5
3d82423d
be174248
3d9b040d
bdd2be9f
bd4c311d
bed5de08
bdd9f1a6
3e2ac792
3db0ab8a
3c9e55d4
3e8b70ac
3d583295
be45d62d
3cc1135c
be47657a
bccc8e1f
bcda68f7
3d958462
3d8aa11f
3e0c93b3
bd352150
3dcfdd80
3eb68eac
3d932898
bdebd8d0
3d9298f2
bca5cc08
3d2bfdde
3e733873
bd95763c
3e119423
bebffc39
be653668
3e96a536
bbbc7512
bbe1e10e
3e5b794b
bd0960cd
bed166cb
bd97d8b8
bea05b33
3d4c1e02
bd0d51d5
3e1246d5
3e6760ee
3e890620
bd937a83
be65ec85
3ed4ac7f
3d0716c0
3d9e38b7
3dea5755
bd3f8431
3d2b6635
3e4d4f60
bd9a0e93
3e9eac1b
be9d0e4b
be168183
3cd5065d
be9e9485
3e592fff
be2fb0ae
3dba23eb
be66f4a8
be632cd8
be6abc4a
3de5875b
3b264f67
bd7725c9
3e2b8e99
bab15766
3e00b067
be72eb7f
bd6d29cf
be00c30e
3d068d6d
bd235427
bd0b68aa
be3d9610
3d52d4d1
bdb04001
bdb3cca8
3e4320fc
3ea28d3f
bdf11c8e
3e4ba9b5
be533f60
be790f43
3e3b058f
be34d36c
3de473a5
3e5b864f
3dc7f365
3e58a31c
bdf82c7e
bc7f4457
3c8e6318
be2c41a9
3d18ee94
bdfae82e
bd8ecd3a
3c9e9efc
3e350bd8
3caa6cb0
be31a100
3db28f5d
be24db47
3cd3025f
bd1b08e1
3c0ef121
be8daadf
bd4d9c0b
3cd6ce13
be0d3ba2
3e9b97a9
bc7f5529
3d9aa90a
3bc3ad9f
3e22ee65
3cdbfa5d
be566b44
bd8cbfcb
be430ac7
be1f21fd
3e36764e
bc3ae0aa
3c9fd1e0
bdf8d02b
3da24921
3d56d332
bd4dc339
3cc3cb6c
bd0d039b
3d99d2bb
bd895c08
bc9bb4e0
bd4d13fd
bca01a04
bb73b100
3da75715
3cd6712c
3c89099c
bc91b970
bca96c4c
3b708120
3d8b95b1
3d90f627
3d082a50
bb2df520
3d8e9283
3be1ade0
bcf241a8
3d8df09d
bcdb9eda
bcb11f00
3d957457
bd3f3804
bd7a8bfc
3c841490
bd8d7f2d
bc1019d0
3d52ea66
3d55c5fe
bd2f8183
bd71122a
3cc9c730
3ccc0e48
3d29365e
bd0b8abe
3bcc6cf0
3da777b1
bd75d3a8
bc4f3a80
3d5cce8a
bdaae3bc
bd71ab14
bc92110c
3c5eee20
3d2652da
bd52c883
3c8e229b
bc80d2c0
3dc48aac
bcfba45c
bca78d2d
bcdd552d
3df9a2a5
3d2dc79e
3ce5f8dd
bd124428
3db989c2
bc528e03
bd42076d
3dc4c7e9
3d0cf372
3cbcd44e
bd8c3bc3
3cdb9c6c
bd896d3f
bd4c362c
3bdc28b0
bc41cd89
bd82ea7f
3d2e5d39
bd279422
3c0e454c
bccab7e7
3daffdb1
3e379a81
3e4d62b8
3ddd5e17
be132546
3e8f0863
bd713548
bde4bea6
bd97dc68
bda0156d
bd47df9e
be8704b8
3e3ae4f0
3c7f4582
3df2234a
be5503e6
3e3ec620
bdbd2228
3ca2168f
3d71edf3
3e2f71fb
3d45272a
bc5fddf9
bda209fe
3d901fc5
bd18a106
bde2678b
be8a5ef3
3e42471e
3d7206c2
be8948a0
3e4f961b
3bf27a02
be84f50e
bd4fb6a5
3e0cdb98
bd9026ba
3e0cd5e8
3e583ae8
be3862ae
bdfa8860
be956e5c
3e656962
be6ef7ea
3e5b5aa3
be175358
3e7ff364
3df5fd56
be36ab6e
bdc9307b
3e55653e
3d3669b6
3cfe92c5
3d5ea909
3e1b366d
bd18b517
be97c1b9
be11e47d
bebdd049
3cc09d3b
3dd527f7
3e695c8e
be1dd7cd
bde5d4c6
3db0258c
bd55327f
bdc680f4
be824389
3ec3f587
3c8f6770
3e828f6b
bdc15b6d
3e2c2a78
3e0c1910
3d10643e
be0271c1
3e27639a
3d530d0e
be8a58f4
3de950fb
3ceb2d22
3e9723aa
be6bfd24
bd80fd13
be890c05
bda6068f
be76c987
3df0a202
bebb0499
bda449c7
3e2dd797
3cf090c8
3d8ffaee
bb69e641
3e971698
3e28e80c
3dfb36a4
be163321
bdb887f8
3e17f9ff
3dcd928b
3d08dfbe
3d14dd66
3e79f672
3e10b8a0
be2724b3
bd6ebd9d
3e0ff794
be1996ac
be5100d7
beb3f709
3c54b8eb
bdf2681c
ba7c7f05
be3ca1f6
3e026ada
3dfdf826
3e3934fd
3de300ee
bcf13a9b
3ddcb7ff
3d228626
3dcea3fc
bd9454dc
bd908bc1
bd071e69
3d8774d8
3e5215b3
3b87ea22
3ea1b102
3e1bae57
be03ccc9
3e06ebf7
3d08182f
bd370ee6
bdbe84fb
bf00eb40
be1ff1e9
3da616e7
3e1c9163
be522f94
3d140bc1
3daba7d6
3e5d0311
3e683cd5
bdd8f5b2
3cc5fdcc
be41ab98
bd66ac46
be8b4f67
bc08c7c5
3cfbb193
be00fbbc
3dd32ad8
3b3a23e5
3e757e14
3d8e296a
3e35c288
bbfc7a94
3e5ee568
be45cd0f
bd7356bb
bf17a3d9
be911bc6
be4c21c1
3e5d189f
be8abf55
bda2f90b
3e3e4e35
3d490c8f
3d48c7a6
bdcfdfc6
3deee6b5
bdac0c0e
bdd51dc5
be8d8d2c
3d1e2325
3e016887
bdd0c1d5
3eb8abbc
be36bea0
3e5147b7
3d9f0cde
3e414b9c
bc9e5d85
3e2b5db0
bd9acd3a
3d9d0cc8
bf1d15f3
be3c28a3
be066856
3eba2350
be446351
bd21b4f3
3e7f878c
3d89e045
3e086ba0
bd092c16
3df350d0
be316bbb
391036da
be52467c
3d4954fa
bc5e761c
bd35e683
bd111b1d
bec0ed31
3e67020c
3c047954
3d4693e1
bdedb8d0
3eaf718e
bd1a999c
3dda862c
befda1bd
be7355e1
bd0098e2
3ed51418
be22c80b
3df12d12
3e757793
3e6f1ac5
bbf8287c
3d4fc421
3df6526b
be43f957
bd05a822
bdf94f28
3cdb42aa
be8109c7
3d0ee7ce
be0e4eed
becf3e78
3dd142b5
3e5fdeb4
bd1aa125
bd64e196
3e8a1770
3cf4eb9b
3e0d15c4
be8314de
3c0a8a08
3d760403
3e4f00f7
bc9b6832
3e348b34
3e0b8387
3e0a1929
bc6f0b29
bc7d9eba
3e715744
be97890c
be1b4a00
be808490
3db823f6
bcf7ff4d
3d2d6b01
3c78a64a
bd6454ed
3cc07318
3d896199
3d7b084f
bcee46f4
3eb53591
bd920c27
3dd89051
bed7b5d3
3c07bda1
3d45c3ca
3d166a12
be522b88
3d6cd490
3e7f6fec
bbc166dc
3dd8775f
3cadb69a
3dfe6aa9
be1572c8
3d1417d1
be593c1c
3e071ca5
be871a50
3e2b6f49
bdac0eda
3cdadf06
bd689c68
bd38afc7
bbea610b
3dc6e36d
3e28638c
3cc99627
3d47c332
bebab34f
3da3de8b
3e40c5c6
3dbe507a
bddc17ed
bb4cde81
3e56130c
3e5294ce
3d0fd0cb
3d4067b7
3c902a4b
3def3b6e
bdc4d368
be691600
3dcadde8
be48bebd
bd8e05b0
bc206ab8
be1222a7
bdd323f8
bd066aa1
3d3910ef
3c4bb8e2
3e0843de
3d9c8105
bde5d6b6
be5c481a
3dcc3603
3e228f92
3cdf4a37
be14f5d9
3da6d4f1
3e3d13cd
bb00700c
3d125a9d
bc0ebb34
3e0ba49b
bcc23b0b
be71dd64
be8d662e
3e24d1ca
bec083be
3de9389b
bdbb5db6
3d6a3414
be489f0e
3cfa8cb2
3d44b1dc
3d6a4830
3debfaf3
3cc70813
3ce8bfd2
be0ce915
3b183269
3b887482
bc9a0c5f
bdc17637
3e31ba58
3e47cf65
bdd6fc28
bc8dc44f
bdd15218
3e24d41a
bc903d3f
be86bb41
bca1c9da
3eab3267
be809a67
bd99fe1c
be3387ab
3caf676c
bd7f6c7a
3d0766cd
3d4c8e72
bb9bdf44
3e4a433e
bd149539
bd72a66b
be43fe3a
3cdddb07
bd875822
3de21d54
be09cb81
3d35364a
3e21cb52
3d03e4e7
be29ecca
3c98b003
bd0e42a2
bd68338c
be181ad4
bd19c696
3e5e88cd
be8005b5
3cef73f6
be66affd
3da7d698
3ca9e06b
3c75671e
3d1bdad9
3e151bb0
3de8176e
3de1df2d
bc34074d
bda0a011
3db84180
bdaff31a
3e0a29ad
3ddcd268
3e0923f4
3e37a067
3d7ff4d4
3ce381aa
bcfc72da
bd5ff2b8
3c5fe4b0
bddf7a71
3df68655
3e00371d
be8de085
3d93a7d8
be76e05a
bce8704b
bdac75bf
3b92a207
bdca03e1
3deb34c0
3e00fedb
bc4f51d4
bda6f528
3d91edfd
3d237ae3
be0afdd2
3d274766
3d28aee0
3e2b3fa9
3e65d85c
3e36a5de
bdd4b649
3cb54ca4
bcbc41ee
3c61aadb
be3e8c52
bc1fb4a1
3d43950d
be8bf773
3db623a8
be84acb1
bcd0f697
3d323989
3dc935ac
3d19f906
3d7406cf
bcdffc96
3a829621
be42d79a
bdee163a
bc9af5e1
be3c551e
3e6d4887
3cc0bc08
3d06c02c
3d37fc6c
3e6e1700
3be247a0
bccc565a
3c2a85dd
bca3b113
be3ef36a
bda08abe
3d548cb2
be72583f
3d8f1e8e
be4056e4
3e2cec1a
bcb9ed20
3e2d41b0
3db10110
3e43f742
bc300972
bd34f1ea
be8ea931
bd280c94
3da36456
3e0f3059
3e1212b9
3e2abe59
3c591ce9
bb962ac3
3e906f98
bd5202f2
3d984821
3ccbcbaf
bdb534b2
be660983
bd274f49
bc041e6e
be803a9f
3e0c2a74
3b4a7419
3e2d6cb9
bdeff61b
3e7c2e8f
bc8e5a51
3da00ee4
3c23f2f6
be317391
be617ca5
3d017f9a
3e3440d2
bdbdb924
3d901fea
3e3001ad
3e269b61
bbc6e2bb
3e3be9bb
be1eab6d
3cb69bed
3e12ecf9
bdcac6d6
bd9d78f7
3d1a1954
bc14c89a
be3b806b
3e253dd3
3df61715
be47945f
be354ae3
3e85feb4
bc410af3
3e1a4348
be2e5f8a
bd1d2fb0
be9237a9
bdc0561a
3e829d5b
bd893b69
be265532
3e618d98
3d63a1f6
be05323f
3e1c3ab8
be1c6a95
be195674
3df5bf85
bd00f230
bbeb1556
3e006dc8
bd2278bf
bea2a8e8
3e5afd7d
bc85c947
bdf545fe
3d2f4a31
3cb48178
bdcb0860
bd08b2c4
be6ad8d0
3e47e514
beebcb78
3d05429e
3e76aec2
3d167f10
be992f7f
3e4e03e1
3e52b444
bf072356
3e39cbbe
be0ba13c
3da36a9b
bce038ae
bc915478
bd97328f
3e93d154
be780609
be169d8f
3ed2d3e9
3db17e3f
be30184e
3e082d31
bd289001
be2fb487
be515ef4
bd94e300
bd7a2b3c
be7bd051
bce9ceaf
3df68d01
be322c7d
be0b18b6
3de28dbb
3eaa5214
be77730d
bca355c5
be6460c8
be8fb74c
3e5367b3
be3bc64d
be6cf3ad
3e7ab664
3d8c628d
bd492d6f
3ea9a0e6
be07401f
be9b377e
3d449075
3d3fac13
be41b838
be8182aa
bdbdd7d0
bdec331e
bb68c9fd
3e0555a8
3d11a3df
bbf04b7f
be13bd54
bddd7880
3ec6edcd
3e7ec511
3de0a62e
3d037043
3d1f0529
3e6a638c
bdec7d14
be49ba20
bda268ca
3d6c6533
bc0eaa83
3e9627b6
3dd92429
beee3d86
3e0b5525
3dc5b5d5
3db70c56
3cc3908d
3c8bdf13
3dbed5fe
3e2ddbce
bcb456b6
bbce6b4c
bd41fe6b
3e3e0c6a
bddbe0b1
3e1bdf8c
bd8cfd05
3d567759
3d5b4239
be86e04c
3e9c1849
be64007e
be456b8e
bde0c7ec
3e604ced
3d6bb897
3d98402c
3d488ac2
bec52b35
3e40ba21
3cd95704
3bdb9d93
3e801d77
bb322d15
3e38e406
bdf2c9da
be6d7c1e
3df82984
3d37f36a
3e9ea2d3
3e0a2b65
3d8f17bb
bdec0c29
bc61abdb
bded6d98
be53f40a
bce3b11f
bd9b5fa7
bda9d0ae
bdfaee02
3e6d385e
3e14a306
3e1589de
bd96ede4
be8cf084
bd8c3264
3d813d69
bc0a9c18
bc0dcbc0
bd690bb8
3d049300
3ccdad40
bcb6f568
bc9aa3ec
3cdbcc8c
bc432548
3d921229
3da10a83
3b1b8440
bc9312bc
bd6b6dd2
3b7874c0
3d96a68b
bca7bfb8
3bbd46a0
bd29d2ed
3d372b76
bd4460bf
3d09c03e
3dabc533
bda487ff
3d062a6a
bd1b86ae
3d79c786
bb98d0f0
39c5d800
3d8cb201
3d8d6af1
3d2d339e
3d325c7e
bd35c63d
3d8a0b23
bda2b777
bd30d2a8
bdaa9d3a
bba840c0
3d1502d8
bd0f5627
3d7d24e2
bd038a0b
3d0bd844
bda542c3
bd7ee628
3a31ab00
bd3b9216
bd6e8fc9
3d99ead5
be0d7bd5
bda54da6
3dbdb7b5
bce97d3b
3e65d39a
bd470620
bdb49eef
bdba3992
bd24ea88
bdb5c39c
3e271bea
3c8e7662
bd415f20
ba14c358
bc8cd3ae
be0a34ad
3e27cff7
3d8fc826
3c1f9295
3cb5591d
3e2ef48f
3d884746
3ea8c05e
be1e6491
be249696
3e0506c0
bc51cceb
bdec69ca
3d797eb6
bad2b2f9
3e97cc20
bebfd2b4
bd17e1ce
bebdbdc1
be542ed1
bd5df05a
3e396140
be2ca145
3ccf15d4
3e17d45c
bb75c181
bd53cdb7
bd28ec62
3d215082
be08ba2c
3c6437b6
bde82d86
3d901848
3dee4dce
3d3579da
3e82fbd1
3e89d94f
3e6a784d
be2c76aa
3eb46b78
3e2894a7
3dcae5bc
be98ea04
be187569
be4d9e87
3b6c4151
be025d7e
3e8070be
be64376a
be5ac7ff
bd4baa18
bcf41644
bca0fd07
bd684e42
3e5302d8
be0feea2
be227331
bda06d98
bdd0db53
3e41959c
3d08517a
3e240a73
3e9af367
bd38d67e
3ddf1066
3d976032
bd6f0226
be30d575
bf054138
be713a36
3d9d3a1b
be382441
be0a7dfe
bdc5f22b
be65b013
be55f67b
3d05e8b9
3e633dc7
3d31d373
3d28f44e
3e703b8e
3defa2cf
3cc66ac2
bc132070
3d6747f2
3e846df8
bd916cb9
3e5f0f1b
3eac7cd6
3e38e525
3e43cb98
3ca05cdf
3d8473a8
bdb72954
be83528a
3d169fa6
bdab488c
bd6dcdbd
be241bb2
bca51368
becee917
be0e09bd
3e2d0a30
3e94a2b6
3ea557c8
3d535e57
3e0be468
bd01843b
bd46f33b
3d2d08ce
bdb9d7b8
3d21223f
bd05f0d5
3d260196
3e36ee7c
3e1da4dc
3dbdb08d
3dbe27e9
3d4a88d3
bcb3e47e
bde0d23a
3e076c4a
bdfb8200
bdd87ca6
be23948c
3d9454cf
be9154e9
be0b1bf8
3d830949
3ea50e8b
3e56cab5
bd1059bc
3e3a6fec
3db0ffe4
3d853fcf
be374bb5
bda26cb3
3e8d2d4c
bda06eb7
3dab38a7
3d50ec2c
3dcfc90a
3e8acc1f
bc7ab346
3cd3ecca
bdb3f466
3d35d9bc
3e309272
bb27237f
3d8a55d4
be0b270e
3b81fd46
be7b8832
bd8481c2
bd482be0
3e8cfd2a
3e88754a
bc01f9eb
3dbb83da
3d3a934b
3d254955
beb41fde
bde41f4f
bdc52235
3e07aaae
3e5dcdd8
be822229
3d1d91b4
3e584ec2
3c9c05f6
be7c356d
3c5e0efd
bd8ca39e
3e2cf08d
be27384d
bd33026f
bd15dc52
bd679de4
bd713e9e
3d92d61d
3d6a9df5
3e046fcd
3e8ae0c8
3d053562
3dd7e8f4
bdb8f5dc
3e1c1a8f
bd1f9047
bdd7ffd6
3cb9e656
3db59413
3cedfe1b
bc9a702a
3d8d941f
3e65af1c
bddefe5f
bdf04de4
3e0a1182
3e2cfc72
3df299a0
be141219
be06a9da
3d8d4d01
3db11015
3b7265a0
3da21e29
3e295dd1
3da61a2c
3e08a65c
bc79c992
3d6e5446
be1ae3e7
3e171095
bdeda1ca
3dab8122
bdeb98a5
3da7c40c
bde16e85
be1f054b
bd9d2f92
3e06d35b
bcfdbba6
be041a79
3e587ceb
3e3f8ab4
3e5b2723
bd2a0438
bd3b4604
3e819205
bc5b6840
3d025bdb
3b4cf3c4
3e5b8fda
bd387e6e
bd354f3f
3cb5158f
3de66e4c
bdf69ebd
bd0cd1d5
bd99c8a8
3d44cae4
be823387
3df17818
3cbc98ad
be34e811
3d260e17
bd1cd85e
bcfbe1f1
be0e1737
3e6b4d53
3ca6511e
3e2d761a
3de8140b
bca38a74
3e832f5a
bd52c620
3d80feaa
3caa3f4d
3dc0565d
3dd2eb6a
3db01148
3dbdf53e
3e07218c
bc2bb09f
be08be69
3cb26d61
bd508742
bec692f4
3dfba719
bce2c254
be25f724
be59f30d
be0dc456
3d427eef
bd3d0ba6
3e2737eb
3d515f30
3dea8bd9
3d4d8647
bcbacb7b
3e7d51d6
bd88f72a
bb09837d
3e008f57
3e050226
3ddff9cf
bc958feb
3d80bb9a
3d636d81
3c53acee
be8856a9
ba8becfa
3e5372a9
be7934c2
bdb61872
3d29a6e5
be2d2574
be058fd4
be51dd0a
3dda4862
3e003843
3cc60237
3d676fdd
3d920250
3c71c008
3d912126
3df794f8
bccf7a8a
bcfa32a8
3e01f165
3c815ee3
3d023997
3e0c2e2b
3d933a75
3b81466d
3d97ef0e
be46f294
bd38b07b
3dce7ca0
be12cbf7
bd5972bf
3db33ffe
bd56e095
bd9f5dd3
bdcc449b
3dd57769
3d6df12a
3e38040a
bd7ffbce
3d84ab0f
be2c9ae1
3deda577
3de813b4
bd1e6f2e
3b803c73
3d105aa9
3d8b9e93
bd169648
3d3862d5
3d666ec5
bc9205d2
3dd8ada0
3d319228
bd435831
3e44407c
be866ffe
bc5275db
bd0347e5
bdaf3421
3cf72a44
bc72219c
3d9196a0
3df13b4f
3e3297e7
3d632eaa
3d9db346
bd953e0b
bc3bcfc2
bd663c72
3deff311
be11a499
3dea0aec
3e7b3b91
be20f934
3d6cc8f5
3d846691
3cd38409
bdc72036
be4d9097
be1374df
3e126a0d
be20bf2a
3d2ea698
bd43a6a9
bd41494d
bd572918
3d27ffae
bc3363c0
3dc7b756
3e1505d5
3e03655d
bd848339
bcf24537
bccdd672
bdd9210d
3d7a5309
3d74ee1e
3e69d329
3da1e9a8
be5267ed
3d150ada
bb918040
ba844d4b
be119dca
be75edc0
bd2c11ea
3d7bbc30
beb1f6af
3cf5b1ad
bd98c5dd
bacbeeac
bdc2eaa4
3e1d3355
be0c08e0
3e3ee753
3d0a1da3
3d5acca6
bdd40c6c
bb9ae821
3cb02029
be36a5dd
3d7e1ad7
bd923ba4
3e09cbc3
3d9c314b
3c725037
be1f1d75
3d988aea
b81889db
bd454c6d
bd96b875
be0fb025
3d66db91
bee2121d
bd3abe98
bda1f15b
3c7595b5
bdce5073
3dc3db09
3bcd807e
3e9e71d9
3e805bc4
3b67e4d9
bda1fce0
bd9d00c8
3e199648
bce16102
3e3bc11c
3d0f6dae
3dde1271
3d99de6a
3e2c7ff0
be11a8a7
bdddc5a7
bd3428df
bdd056bb
be956201
bc0bde6c
3d83e7ac
be9c7122
bd28698c
bd35329e
bcdcc6b6
be19a4d5
bc58a53c
3cac773f
3e3760a8
3da425dc
bd5ef78f
be948098
bdd8e17a
3ddca9cd
bdd3bb41
3dea04d7
3e0b1c05
3e2d3338
3cf7fbf6
3dac04d4
bdf14c08
bca4a6c1
bcfbe395
be1f056d
bec7ddb7
bd821860
3e166507
bd88170b
3db36467
bd55d58a
bd7b4175
be526660
3df9e1f9
3ca06185
3daf140d
3da26efb
3d2a534b
be956916
bc70a232
3d947798
bdf8c9e9
bd4620e1
bd8a1b3e
3de47000
bd65a329
3d7b8018
bd44d67b
3ce24e3b
bd0933af
be17827e
be4502cb
be01e884
3d1545cd
be3a7592
3bb0bedf
3dca7362
3cb86b0b
be3dd2bd
3e389b36
3b7f6fe8
bb20805a
bb0a0617
bc972c37
be95ed32
3d62810d
bd366574
be78e3fa
be3a672b
bde4cbf4
3e5862df
bcbb2512
3e27b99e
bb7abd2d
3dfcdb14
3ca0982c
be5ea716
be1ba0c9
bd7185dc
3dadb0af
be189819
3dea2f30
3e8b82ed
3df19773
3c90cdf1
3df185f2
bd647501
bdaaf477
be3fe942
3d713196
bf0dc934
3d8e20c8
3d931295
bdafb80a
bda91261
3d65ec7b
3e78a701
be364544
3e463e77
be872dc1
3e212967
bd6a24e0
3dc8f784
bda3f2f9
be4e2d81
bcf53737
be33783b
3e1c4439
3ea1461f
3e30a779
3e3d4292
3cbb3a82
3d467d03
bd635f17
be0653bf
bc458523
bea20b41
be18b5c8
3e37a10a
3d058031
bd301ac9
3e1d0568
3e585c8a
be8ae71d
3e110a76
be71a0ae
3cf485db
3de7f6d3
bc9f1836
bc75bbc8
3e1edefd
be13c973
be6f3fea
3e8a5daf
3e28c8d3
bd0046c0
3dcc3411
3d0587dc
3e3ec5c3
be1d02ae
3e3313ab
be54e674
bd167fd1
3bb33d7e
3cb7e470
be414ecd
3d92a773
be1ae279
3e05edbb
bd606770
bd98fa5b
bc8f8289
3cd6dafd
3e0746f7
bdc84ef8
be25bfb8
bd0987f3
bd0f5e88
be86bd43
3e7e61f5
3da4df02
bf11032b
3e31f07c
3dc5f6f7
bd4f2d81
bdadba85
bc0f272b
3dfedb27
bd966525
be5172ce
3df1bdfd
bdd132e7
3e55a25a
3e2a71be
3e73a55c
be1030f8
be3e4bea
be845f86
be7a8d7f
3e9f5bcc
be85327d
beaa3125
3c951280
3ebc746d
3e42e600
3e3d9923
bda4b92c
bea5f22c
3e533837
bd16b589
bdd39912
3d9a5e75
be1930b6
3e334ced
be2fc357
bdd96eb9
3e1a04e0
bd6d909b
3e13f078
3e6740c8
3e6c20c2
bd14390d
3d4a5b60
be5cf36e
bda14a2e
bdf6e49e
be2e7f85
bd5548d0
bc8725fc
3e110aba
3e6c797d
3e427ea5
bd27405d
be8275b4
bc3ebf30
bd1dd4b5
3d575676
bd3e6f4f
3d06f8a0
3d4d2646
bc37fb30
3d2449be
3d9f3317
3bdf5470
bd90c705
3d219cbe
bae975c0
bd2165ad
3d89b6e1
3d8b3383
bba3d4d0
3cdb552c
3d94f0cf
3d3915be
bc67aec8
3d545006
bd852141
3d13aa2c
3d51831a
bda19a17
3d6d0bad
bd8205f2
3e30a548
3dcac7c2
3e366669
be0f5ae5
3e08074a
bdd2bb38
be2769bb
bd9dbb7f
3d9b7c95
be0742d1
be297811
3dbd8064
bd6eafde
3e0f3d20
bd1ea847
3e3cbc5f
3d3dd92c
bd970c94
be05df58
3e18461d
be485ff8
bd0a9b58
3e484ed1
3df3e4c8
3d13b4c3
3e27ff55
be967ca0
be7dac18
bda391b8
3e18c9c5
3da6fde4
3cae7b5d
bddd2e33
3df649a3
bd2116db
3dc231a3
3d6dc682
3c8dcb01
3e3f6ef4
bd6f6302
be511f13
3cecd129
be4657e2
3d8d7a6f
bbdcc3d2
3d865618
3da9decc
3c5bccee
bd7ffe2b
3e7b640b
3e5c2533
bdfbce5f
3da4db41
bd32f950
3df99fb6
bea308d2
3ea5d37a
be3c6a5e
be5e83d5
bd52ad6d
3ccaeb22
be8656c6
be0a1877
3e5a173c
3e6e8277
3e10fc22
bdee34b0
bb7abe75
be161ec4
3d67cc84
bd7f3a0c
3d2d7318
3e6971bd
3d690916
3eaa0add
3e6f56a9
3e476de1
3d6c7824
3b1cc4b7
3c07fa7b
3dc4e655
be501a5f
bdda62c5
be1bd4f4
be28ff68
be099173
3e7ce49f
3d76a9a4
3dc882c4
3d6315b3
bc8639ed
bc1816ea
bcb5fbfc
3de572cb
be2a73b0
bd1b0014
3d608f97
bacecefb
3ed250b1
3e00ffbd
3e7c4eb1
3e52eab1
3e2d91b6
3e352d1f
bda75ed0
3c32a6e0
be94e13d
be58fb80
3ca53327
bdceadd1
be23ea45
beb1a472
be119567
bda78ae1
b9be32bd
3d980bf8
3e6b13cf
3ea9be2b
beb6e919
3e461d7f
3d856eff
3d820ebd
bd9ab33a
bd186af8
3dd96650
bc67b87f
3dbabd61
3e01a70e
3d27ae72
3def0076
3dbfc7f6
be1952fa
bd5cfe87
be0e1515
3e180e33
be8308dd
bdf37476
be60c972
3cb04b3d
bea8c470
bd776530
3e9afe05
3e284ab0
3e67d7b4
be3c289a
3e88e026
3d04d4c3
3ca60e3b
be2c2e3c
bd579896
be056c92
bd48e9a2
3e223ed7
3d847f0a
3cb66696
3d94a404
3c2742a1
be4669ef
bdba6b90
3e1c44d3
3caa35f4
be24df4f
3d11916e
be2b19af
3db4b8f7
be1f6171
3cd5b4e0
3d324401
bd09f301
3dec3d56
3d1ed100
3e63c7dd
3c588acd
bba79f1e
be27e8d5
bd80ca2e
bc2fc7b6
bc91c9be
3dc13cb1
3c979b1f
bdbbe43d
3e7cbe02
bd477a75
beaf8e67
bdc1b696
3ceb9750
3db07e61
bddb2faf
bd8e03b2
be103495
bdbd2e01
bcb9aa2d
3c733f3e
3d5dc871
3d159cad
3e344d37
bda457f8
3e820ae5
3dce2130
3de70c8b
be5f3189
bba0c99e
bd8b53e6
3daffb9d
bd1e9a03
bdc308c9
bdb72eda
3dea01f3
bd2f3382
be9a4e4f
3d3fbcd8
3d75e1d5
3deaf81c
3cd2e8c5
bcbbabcf
bd140172
3d04a8b8
bd3ea628
bc8d20f5
3e30acd0
3e09a5c6
3d8d9656
bcafc445
3e9e8c74
3d312a25
3d4e9e64
bec1b286
bdcef75b
be3caf4d
3cefee5e
3dc29caf
3e51f68e
beaef0b4
3d7917c9
bd36ce6a
be18d141
3e595088
3e34455f
3e358c46
3d866e70
3cc8326b
3baadda7
3d4e15df
bdc8cbfc
3d58c9ac
3da4eb49
bd63d507
3bf42e02
bdc13ba7
3e1f3d60
bd298f63
bd267707
be8cc1ed
3d55448a
be281778
3caef300
3e2c7533
3e7a6c3a
be24bcca
bd4841ca
bd65f6d6
bd944bfe
3e3349d0
3df01cc1
3d9e8ee7
3e6ba00b
be18e0a2
3e4079fe
3d7d2db5
3c6631d4
3d7334f5
3db8909e
bc98550f
bd0f3f10
3b40bb9e
3d8bc08a
3bacede3
bc5b9713
bdca9eb9
3df14930
bdd08133
bdba4937
bb317710
bccfe194
bddb04df
be585e84
3c7ab764
be1875d2
3cf3d24a
3d9d3af4
3dc90f9d
3e1741d2
bd8f280b
3d7b611c
3bb893b4
3cd095a9
3db81a68
3e28b5c2
3e35c68f
3da9dfe4
3e0227fd
3e89a61e
bde9bba1
bd4c93b1
bc552b07
3c9f4a5f
beabed48
bdd1f97c
3d91a2b3
bdd2aabc
be189968
bd97f42a
bd904494
baeb6b08
3bbd33ce
3b33b5cf
3ddfd911
3e4fc4a3
3c927214
3e3c1b78
bd8222da
bc5f35a2
3d5a5527
3e87572f
3c93cbc7
bddbda0e
3cee168d
3e6a8d5d
bd4a3f55
bce76b67
bdf09545
3e1d157c
be4dc6d5
bca83cd8
3e0ae4a3
bdd92075
bdbae179
bdd49756
bd357668
3d2088f0
3d898533
bc2144f9
3d6a8860
3e4e8e0c
bd2ddf4d
3dffc626
bdc6c3c2
3bc3c56b
bc7a4d4d
3e1f9497
bdc3657a
be0a05a8
3d53d0b5
3e189056
bd502118
be2b779b
bd6bd5fc
3c994c85
bdc3804f
bd4387d0
3e66e3ca
3c9dee84
bde9db74
bdf1b903
bd17260a
3cfdbd49
3d8bd760
3e01bb07
3e4ac7fc
3dcdc6d6
3d1501dd
3dfe5486
bdfb4d13
3d33bfd0
3dd9e913
3d5d6a96
be2496cb
bc9030db
bc876d85
3d8fad39
3d488e8e
bc960041
3df6292e
3d82610d
be1dd5e9
bdd9b6c4
3ea015e3
be08a995
bda0ba5b
bd4adf8a
be1f8408
3db7cb63
3de72168
bd31bba5
3df53369
3e1db4a0
3d8388c8
bd140e57
bdb432cc
bc67fa9e
bdf1e9c1
3b2ee75c
be968df7
bcf4854e
3d227af1
bd586bc1
bd22792b
bd2501fd
3d9fa3c4
3dfad62f
be2463e7
be4b506d
3eb3f5c9
bdfca290
be02eb55
be1fb283
bd53ba4e
3e0d130f
bd37dbfc
bcf68a48
3ddc36af
3df06d28
3cb0c49e
bd9cae9e
be001988
3d88be72
3dbdf98e
3d809690
be7b4883
3b81af2a
3dd9daf5
3d40bbf5
be2d1d0b
3cea609b
3db33c34
3e28d109
be199e94
38e37554
3e1d2d6b
bd90c82e
beae7a4c
3cbf281e
be2f20ca
3e3a90a4
3d401825
3c5df171
3d663cd9
3e2636c0
be4682a8
be287daa
be0ce2c7
bd9643c4
3b59f42f
3c2264b0
bcf1aa2d
bd8bd776
3e09f534
bd677d73
be04f9c0
3b81a66f
3d273b39
3dfc8746
bc2166d8
bd6cfd13
3c0f1b42
bd129103
be8b96a1
3d5491fa
bd3c94bf
3e276628
3dca84ec
bd1aae30
bd87b3b8
3e3d0200
ba2b1c7a
bd463ae4
be112a19
3d78bccd
3e307cb7
3d1090ec
3d39fc2a
bda8e95e
bbb3b018
3d34cb47
be883443
be612513
bcb51075
3d8a9f4f
be59dc2e
3dddb62a
3b69b4ba
3d1f8aaa
beaa6179
3cbd29ed
bdb3ebbe
3de5ec2c
3d3b14cf
bd2bbe62
be232560
3da139a5
bdb58cd2
bc1c69fa
be861da6
3d24558e
3e4d3cc3
bd7829f0
3decf518
bd9e9898
3d09bf7f
bdeb7188
be5ad978
be8c65a6
3dbcfcc0
3e008e16
be00c5a1
3d8571d1
3c4592c0
3e233ad7
be81d973
bd70c631
3a030ead
3e1b1116
3c8f1f51
bcb5a168
3dc773f1
3de35552
3de90bf8
bd83f4f7
be74a740
bcaf5abc
3de64632
3d1a4d5e
3dc3f946
3dc2f954
3dd9fb36
bdc971b8
bd911087
be1bf250
bdb826ab
3d962ec5
be5ad1f1
bdec7a9a
b9c3b0f8
bbd13185
be65865d
be3ebac3
bc6e8261
3e15eef2
bd0cafde
3da60b52
bc4f04f5
3b458e20
3e2f9b7c
be29e954
be2e7e7b
3dada705
3e5a407c
bd0f9e43
3dbbe913
3e08ba97
3d9e1333
bdec9bc3
3d1ad35b
be1b2110
bcf143f0
3db8511b
be046ca1
3d8d760e
3ca783a5
3dad3273
bcf89f2d
bd57abc7
3d0fb7f5
bd2b86d3
bde07b90
bcf9aa22
be148374
be0f45a6
3dfcb54d
be1feefd
be1c3702
3e714c05
3e922f3e
be3faa5a
3eb7fb81
bdfd4493
bb366299
3d2257ae
bc166cde
be144ec5
bbf26b20
bcc782ee
bdf8efb7
3e1d65c7
bd8df378
3cfc31a7
ba6cdc68
3e3cd08c
bb00c118
bead56ef
be05992b
bd90277b
bec5aed0
3df56fbf
3d934349
be36e267
be05e8f8
3dfbe3da
3ea9a5d1
bdb15f22
3e40d446
be59d048
3e231b72
3e9ba551
bd3f6eb2
be6cb020
bd81669d
3cd1215f
bd4e4fbe
3ddd56c2
be3d2226
3d9699b9
3d81df9e
3e7cd91c
3cea9afa
bed76931
3e44364a
bdf19ec1
be9166aa
bd99dd32
bcc10435
bb739dec
bd929198
3dc97355
3e8abad5
3d75d8be
bdad8393
beb2a512
3cc08b05
3e61afa2
be2dfe37
be9d3bd3
3eace475
3e7a6595
be3b1a04
3e28f902
bed22c5f
bf004176
3d223ccb
3ea0a349
bceb52a3
bf09e1b7
bc957a4f
bdc491dd
be4935c0
bd1fc5ca
bd2997f1
be32672b
bd33c5b9
3e0ccd0a
3e8aa703
bdcf0432
bce6583c
be083f11
be279e18
3e6f02be
beb150d3
3dcde3d8
3cd69f3a
3dbd03bc
3e373d19
3b463227
bdef72d1
3e5b1bbe
3e0b0a7d
bc2b2ef7
3e1c3305
be26aa46
3e7bcee6
bcd95819
be347f98
be3de72f
b91e4722
be71ab38
3e1047ca
3e18dfd1
bd25c899
bd47a02c
3d546808
be861655
3dd60815
bb941d4f
be6f51fc
bdfba837
bca034fe
3e320566
bd027b1a
3da36f62
bdf7e85a
3def9d60
bd383dd1
3b39eddc
3d9f1df6
bd7476f6
3c6bd4d1
bcc623c6
3d18b5a6
3caf1ed2
3d11f99b
3a5767d0
bd4fd9f6
bd99e9aa
bdb2ec0f
bd559366
bd864471
3d86f62b
3a1da400
bd8b8874
bd9093b5
3db7271d
3d964cee
3d9d741e
3d170435
3d164a16
bcef2202
3da24247
3daf5395
3e6559b6
be1bf15b
3dae3bdb
bdf72312
be620063
3e5960a1
3def2895
bea89e60
bea3c69e
3ca39dcf
be872c38
bd1b02d8
3e6ceaa2
3de6ce60
3e31e385
3cb1da6c
3e978b1f
bdc264f1
3cd664a3
bec9d77c
3d9ecde4
bde39314
bd8c3ad6
3de39048
3e01102b
3ccbd57f
3e51db21
be2ca0b3
bc00999e
bd3ba0ee
3e25d11f
3e99d6ed
bccb9e1c
3d7b17f7
3d0abc90
bcfc336b
3d95280d
3c8bf2fa
3ddd5135
3daaf79e
3dd10313
bd8eb7cf
bd2b7e5e
be5f2ae4
3ce16f23
be6e7836
be25f3a9
3dc20961
3d9f89d3
3e0fd33d
3e748bee
bc74397d
be5f05b4
be08f9dd
bd2f561a
3bd3652f
bdd38350
3f08a843
bcc6db2a
be49ba2b
bc7114d7
be2f9b21
3c7a51b1
ba9fbf79
3e5c1fc9
3ed8ec6a
3e9c748e
be426ab8
bca8a8b3
bd0fc381
3e2ab124
be3a8890
bd03b109
3dbfe4c9
bd04692f
3ec488be
3d8e510f
3e56cf72
be2dff70
3e151329
3e12298c
3e64f3cb
be1718e2
3e40305f
bee6a474
be1fe5c9
be9f2b88
3e8e3bdf
be83a055
3d19ce55
3eea7fe8
3e0a0aa9
3e54e7dc
bea76a37
3cf93770
3bffd01c
3dac1eba
be28de99
bd77aa8d
3d8b6c00
3d217c62
3d96f1aa
3e32d8d7
3e4368ab
3dc6ec0b
bba1592e
3df6cc03
3d077b99
bd838b94
3d5f5a8f
be998973
be00f800
bea85311
bd0db8bc
be3468b3
3df4641b
3eb91368
bab13245
3e433ef9
bed43988
3e2c6d27
bdbb46eb
bdc332c1
be5a0411
3b770a79
3d46d597
3e232cd7
bd10134f
3c8ca3d8
3d489b49
3dff2637
be06c22d
3c5dc835
bdc7e69b
bdac685c
3e2fec10
bd8a4277
bdfe3edf
be2501e9
bdd3cc5e
bee40354
bdb4151b
3e9aef12
3c6b813f
3e6debf2
be800515
3e83c70d
3ce14ef8
3d5b5976
be8b4e1c
be3936c1
be2ac210
3da0005b
3e1a0159
be83294d
3d9ac867
3e4ba7fc
bcc43e9f
bdd6585c
bdc2ad40
bca40e1f
3d3606b4
3d341162
bdea54a8
be0546a5
bc0528c1
bea69917
bd82062d
3e25a473
3ab10c3b
3e1ad33c
be0611e0
3e75f820
3e0b4039
3c90b403
be10f94f
be06f6fa
bd7ad315
3e187727
3db2a5f1
bd8d7a16
bd0db9b9
3e23b1da
bcddc056
be8edc58
3cfe0bee
3e257567
bc16aeb3
3d81222e
bd2aa4c9
bde213d4
bd1193a2
bc088f9b
3c1dc308
bc22174e
bcb5dd11
bc04c80c
3ce134e3
3e488188
be0d4717
be20c320
bea0cb5f
bbaf8fb0
bdb0d31d
3e43a729
3d813015
bd844821
bd70b1f4
3dcf4034
bd345a63
bde0cab8
bd64f577
3db49fb0
3e1a1bdc
3d9d8d30
bce67cb2
3cc3be58
be119cef
3d260f7f
3db92d05
bde4efdd
3dc47b5f
3d0eb1c2
bd118989
3e024100
3e215f26
bd2597b8
be4c9a8f
3bfb6d92
becb050b
3e301921
3d4d58dd
bcd48694
bdd02a66
3cb0a473
bd385591
bd8590e7
bd7b2f28
3e5f9f58
3dfc4e0b
3e29adef
bde24b8c
3de9fa90
bc8ac336
3de81528
3e268690
bd8cce33
3da147e8
bbd435b8
3da67574
3e31cefb
ba9b0201
bc3e1641
bcc873eb
3dd44a26
be9813d5
3d0d2647
3da63a69
bbb0c03b
be3b7a9c
bdbbf462
bdf2f230
bc5ab407
3da0fdfb
3db82210
3d24168a
3de725e4
3dc029ac
3e4563e3
bc98e56d
bd429c15
3e1fbd5a
3d4a3df5
3e029f09
bb2ec599
3c46fe02
3ddde26b
3d17024f
bba5493a
3db779e3
3d8cfea5
be202da6
be0623b0
3c6c4a67
bd6178ba
be08f3f6
be6481a6
be4cd60a
3c5606b8
3c0ca52e
3d3f054d
3cf962a1
3e274440
bdf15ab0
3e62af5b
3d56b5ef
bdb84c56
3de56164
3dd6904d
3e0e96ad
bdc20a21
bb262d21
3e4f4ec1
bd5a16da
be068a87
bce407b1
3d6febaf
bd8a08ee
be00b8e9
3dfcc1aa
be3ba41f
be8004a3
be6ba54b
be11a7ba
3cb0167d
3d0b103f
3c863872
baab71bc
3e15b3ba
3db0e0c1
3e06ab3e
be01d868
3d8cfa98
3cd878dd
3e66e979
3e075c1c
bc6a8b65
bd9699ab
3d836f94
3d997fef
be095950
3c1ed887
3e146f77
bdcd6121
bd28f3c5
3ea36a2e
be7970d1
bdc05627
be244bc0
bde6b3ed
bd481e76
bd25dfce
3d208e9b
3cdabc45
3e19bef0
bc146253
3bf28b84
bcae1100
3d4930bf
3db90289
3d4d4b76
bd7d96e9
be4ccba1
3d85a60b
3e084c7e
3d7f84df
3d3d3a1e
bd0192e9
3e04eb1d
bda17d80
bdde73ee
3ec8dbf5
3c2a15a1
be3872b1
3c97bc4b
be2699ee
bc28d5ba
3d206347
baaa98e3
3e800e53
3e17090d
bd9bab26
3c6ed4a3
3c1eaa85
3e3e4808
bcf23a86
3dab082f
be8ccffd
bd65a41d
bb63039a
3daa7a15
3daa6fb2
bdf35f13
3dc37c17
3ea788ca
bc0f32ec
bd7c91ae
3ebdffcf
bc93e9d5
be84d3f3
3d7f6eea
bdb26890
3ce7cd94
3c26924c
3d47d8f0
3e286a19
3e0b1788
bdc9110b
bd7edf96
bdcc9083
3ddadf96
bcb4a74e
3cd1b3a0
be9c42a1
bc927d23
3d051f54
bd1e2e06
bce564ed
3d4d9d22
3d04d981
3e1ba709
3d669341
bd3fa40a
3e34028d
3c03e15b
be5af229
3d20ead5
bd9eb617
3dfe9fee
be2c22a6
bbaf13bf
3e4f0342
3d64f67f
3d380979
bdf66bb2
be558f12
3e016f73
3d859371
3c304a01
bdd7de85
3e0bb5a2
3e274378
bd6011ad
bdae10f5
3df81e61
3d184765
3e2589e4
bdf48ffd
bd809e6c
3bf33afd
bd42eae9
becb7589
bda70dea
bc29c3ac
3e6ac26b
bdfd1d56
bd06d97b
3dadcd05
3e026c1f
bc1e2672
bc1db7a4
be15011e
3d19a496
3e42ba1b
3c3eddf1
3ddc6ff9
3dce5e82
3e1d68ed
bb4e4108
be358b2c
3d66ca3d
3b04dd98
3e189daf
bdaca6f6
3bca2070
bdc6b814
bd1eed71
bed5734a
bba5e440
3dae3560
3dd6dc12
3d9f2fd3
3c1d9abf
3e29e035
3e5c1871
bdcdee15
bd16a3d6
be9b4e1f
bc83c593
3db92766
3d8e4a68
3e25a284
3ab0b39e
3d8a6142
be037b52
be34bb00
bdb2f78c
bb729820
3de7ab82
be3247a1
bd3b72cd
be0d2081
3ddfc43f
bece1ee2
3cb5cbfd
bdbb53f4
3d713648
bd0e2f79
bde91f46
bcb960b7
3e1dc63b
bd9e3617
bdf0ca6c
be798ea4
3d6ff8ef
3e856995
bd012add
bc6cb800
3d564662
3e11aa4a
be619ee8
bcd8cf1c
bcf385f6
bdb26af8
3e1dd2fe
be6fc119
bd97739c
bd4b712f
3d8495bf
bea8825e
3c13dc41
3cf42a10
3cbe5dad
3dbde87f
bac55778
3e08d8b4
3d6140a3
bbc17b54
bde5805a
be9d9075
3daf58c9
3e948b17
bd2cabef
bda6cdd2
3d1d32d4
3c564319
bea036f7
bd739b8c
be23e689
bbbaa585
bd81b6c8
bd89844b
3d0bd34a
bcdff1c8
3d887529
be871bf7
be539eb2
bc981b29
3dda3684
3caf31ca
3dc2e3f0
3c8a19bb
bd905e10
3e0d8af2
bd8ab32c
be180d26
3e921f55
3e5afc21
bcb8108b
ba9809a9
3ca841ca
3da8a53d
be7e0013
bda1b75e
bde67fb8
bda4a2d4
bd36f1e1
3dde436f
3a5b5733
bd550c51
3dcab8a2
beb1f417
be37aaed
3d9ccca0
3c4d10da
be175d55
3bcf6d21
3caacf6c
3db6b1b7
3e30dfba
be0015fc
be81d2eb
3e55f964
3e57f372
be4e3241
3ddaed5b
3c810d29
bdec6f66
3e2f68b0
be0fc3e6
bcba14fc
3da75cac
bd60c0f2
3ca986c4
3e025f7c
bea41f70
3e69c6f6
3e063e5b
3da71cb0
3d770a15
3d1e2009
be3315d1
bd9e6325
be90638d
bd5739d7
3e6592a0
be6caaff
bda22326
3e6d2e9d
3e6ec251
be3711a2
bd3c6114
bdab8812
bde07369
3e8ae94e
bdb2cc08
bd13fab5
3dacdd1d
be4994c4
be29cfee
3e8c123d
be919402
be9468af
3ef02118
3db59299
bb2b8827
3d5748a7
3c68af47
bd183e3a
be82b01c
be431154
3e743f82
be555d02
bde62492
3e8356a1
3ea766ae
bde6db4d
3c3f801d
be85e93d
be481c14
3e2284da
be0a2ee1
be0c78af
3df93b96
bc0c7e9b
bd609a36
3eaa6e15
beed6e5c
bf2e61bc
3e734c30
3e2141aa
be1a3f43
beb231a9
be46b12a
be10fbef
be668f3f
3c01c6da
3d74be6f
3c335c97
be02d77d
3ebf28b2
3e9b11e3
be1e8507
3e1a5094
bd7f2c3e
be1e1d4c
3e7f5182
bc9c7cae
3e017b54
bd96046c
3cccf549
3d81fac0
bbb5d32a
be7fe4cd
3e40d317
3db2d6b9
bd24c5e1
bc3db7b0
be83f792
bc5017f6
3df7abaa
be40328c
bd833aed
bdf6b0a7
bdc89718
3df04046
3bd28628
ba108c2f
bdd50a12
3d31e61f
be277590
3d50f9e9
bd606a03
be982888
bea73088
be5bd890
3e90aa59
3d5ea31c
be153fa6
bcd16ac7
3d3803ae
3d64a002
3be25b81
3d87e16f
b5bb0000
bcecf2f6
bce36ffa
bd692268
3aee9a4d
bd35f4e0
3d7610f0
bd7f012f
3d63eebf
bced33ec
bbb7e59c
3d35c8f8
3d63bcc9
3da3ba3f
bd5318bc
3da70d31
3d74cee7
3d0f5d92
bcbc26cc
3d163a20
bd265850
3babccab
bd8d2302
3d7cbe3d
3d3ff671
be2340b7
3d80b342
be0cdad5
bdb000b9
3e0e36cb
3e775b2b
bdd857c6
bdad78a4
bd9c153d
be961e21
bd562194
bccd77a0
3e8f857c
3e4e8063
3c9cedc4
3e55fa33
3c960060
3e68a228
be98acd2
3d4f5d82
be1d8cb5
bdbd3ec6
3e5f0ba5
3dfe774e
3db6ef81
3d3891bb
bd726655
3dcb1cd9
3dcf0b74
bd52bd4e
3e7fab0f
bd362013
3d1ef22b
3d51eaa3
be0cfa0d
3d3525ab
3dba11fd
3e3b294c
3e34023d
bc76ab2f
be36f64c
bc42fc98
3d9b2d82
3ded9180
be4399f0
bd1faf98
be674945
3e43c1f8
3dc90752
be76f5d7
be013966
3dd16568
bccbc51a
be2029cf
3dae3f9d
be1f616c
3ea90d13
bd62c0ff
bd9217f1
bda5812a
bd5fc071
3d5823bc
bda5d0f0
3ea150d9
3daf7b4c
3db4af7a
be97492f
3e1ebcbf
bd4dbcfe
3d42d98a
be4fc5c8
3d95c3e6
bdd39221
3d9c4a83
3d82d294
bc042e9a
bd315dde
3dbf8d12
3d1b1a30
3ea0831f
3ded37bb
bdff7455
3e0c3d7e
be2a35db
be394a30
be8a1c58
3e2adda1
be02b24e
bbf0a5fe
3ef12c04
3de56b37
3de5fdfe
bebc3036
3ca51852
3e14520a
3e13c053
bc5edd34
bd998ac5
bd4c862c
3e19c10a
3e527b1b
bdf54c68
3e068a03
3e4344d4
bda1f553
bc9379b0
bc31da00
bce7540a
3dc24ac1
bdf7a290
bddf499c
bdc75202
bd7d7bcd
be42f98e
3d513682
3e5a9011
bd8ce8d3
3e0897df
be8d4c85
3e00685b
3e3ec8a7
bbde5b5c
be5a01f6
bd2160ce
bd02322d
3e47b781
3d81eacf
bcfc1453
3d55b9d7
3dd1a738
bcc03e93
bc721559
bc93cc14
bc096f1a
3e2864c7
3d48a4b7
bde821e3
3d3b9360
bdc853b7
be74132c
bd98efe1
bc8e8968
bdad1e0d
3e1891e0
be476b27
3d8b516f
3d541756
bd066c93
3d8b77d3
bd79b789
be12053e
3e322016
3cdc92cf
be6906dc
3cb5e993
3dd0e3c7
3d947869
be106d00
bdbf94d2
bd779867
3e084c26
3c444c9f
bdcfca0f
bdcac764
be29c306
bdb6d3d7
bdacbd37
bd6c7448
bcc27dcd
3e2e971d
be569788
3e41ce97
3d9c7b20
3d8ebf2b
be89e8ac
3cfb8e21
be9ba3aa
3e7c2461
bc0c27d6
bdf7f570
bcc407ef
3e144a21
bb7ac426
bdd49d17
bd2aeb38
bd62b059
3d511532
3e5a8d85
bdb39582
bdb849c7
be642042
3da414f3
3d9f74de
bde1ceef
3dff2eeb
3d13ab05
bddda0b4
3e2f4653
3cdef584
bd148b35
be83432e
3c049555
3b303482
3e062815
3e3bb949
be2ac21e
bced4718
3e08759f
bd2872e9
bc8a1557
bd115cef
bd4d2e99
3e35e03e
3da13752
3c101c0b
3c592fc0
bde49cd5
bcb3e355
3d85fc53
bd3a9ef9
3e14e147
3d830645
be03a0a6
3dc505fc
3debedbe
bd129d09
bcac365a
3dc33c90
be002530
3e02d1d0
3dca8ff6
be2ef0f6
3c893ba5
3d4cfb13
bd41602f
bc602919
3d1bb0bd
bacc91fb
3dd52eac
3d62b3de
bd4b46ba
bcbf4e0f
bdc75b62
bd831eaf
3d0f4628
3dffc872
3df10ecb
3ce8a721
3cb1ea18
3e39bf10
3cc9899f
bd9aa513
bd336f8b
bcae9651
be811d03
3b9c12f6
3daa5008
be6200ae
bdfb3f0f
3c656910
3d30356c
bd8e13c6
3cefd4a2
3ca961a4
3c4e7847
3e0577cf
3d0b0531
3e179988
bdb4fa1d
3c8e1d10
3e45ab49
3d747b06
3de5e068
3a3e001b
3d18a980
3dd4814f
bb60caad
bdeb5945
bd0079ac
3c8eb943
bddb680f
3cfe5e24
3dbb20fe
bd2ce6ab
be10ac70
be8d0706
3cad6221
bda19534
be0f1bb0
bda429c8
3dfc798e
3e1bf531
3c343c7e
3d58917f
bd7d7f0b
bdbcb667
3e290fd8
bdb4c5bf
3de2e8e7
3a9051b0
3ca68279
3ceb7b70
3c9f523b
bdcadf4e
3e04cfc8
3e149909
bdd4a018
bdae29f1
3e28de8f
be25e079
be639d1a
be9d5131
3db3b37d
bd8e02ec
3dd96d92
3d88f271
3db25f78
3d438df4
3d660867
bcc1ebdb
3d8105d7
3d43632d
3dac0cc8
be31edea
3e05bc9f
bdb7d4b8
3d8e550a
3cda586b
3d92183d
bdfbafe0
3d96bc47
3e73b4a0
3d0c3d9e
be31e94e
3e8bd457
be760d00
be770c61
be747dbe
be1eb7f1
3d346f0b
3df08104
3df8d403
3e4f2e0c
3e68dc3c
bd45898d
bdbc52c4
3d12c2d0
bc833c15
bd067a72
bd5bc83d
bd37ca71
3898830f
3e010525
3d8fff5e
3e31a4f4
3cfc08b7
3d0ec24e
3e949a5a
3ce9dae1
be9311ea
3e9a0286
be35201f
be436591
3d8195f0
bdcd06e0
3c4be3a8
3d82b962
bd681351
3e77aa8b
3dbb1c22
bd9e3d9c
bd35616d
be3d1a25
3d1464e0
be1b4f37
3dbcb061
bda657d6
3b8307a4
3dbee820
bdd18c62
3d2f21d2
3e0e3999
bd3b4d63
3e4c349f
3c35212a
bdd894bd
3e0f6f91
bdb655d4
be9b8567
bc7c70dd
bdb682d8
3d9dae4a
3d2bf27f
bc67c41a
3eb13e25
3d16f581
3d6aae4d
bcc7c9ac
bd04a925
bd3da19c
3dda8e45
3d305a3a
be704a69
3d943d31
bdd040f3
bda57a47
be5fac38
3d3a4414
bd16f067
3e2555c2
3e09d241
3c34d987
3db581c9
bd4e71da
be5b7f38
bda72514
3dd6a21d
3c3c1392
bc567e28
bb8951d7
3e79e36d
bd4c9731
bcad37e6
3d857668
3d5674cb
b989b232
3d5f48fa
3e1dd127
3cb76159
3d4f2c7f
3d10dead
bd3a408a
be284008
3d31bc43
be065c85
3d20404d
3e658b44
bded6602
be00a861
3dbc4054
beb864e3
bd33ea9a
3da920e3
3d24e078
bd394971
bdf654e3
3e5879a4
3dfd1745
bc4f8e34
3cbbf28e
be788261
3dad596e
3df0e0d4
3e00d449
3d9ea332
3de45abe
bd8fafa0
3cc18c17
be5b89bd
bb2c439e
bc567c7a
bc2b2a1a
3e257450
bd7e9893
3b4ed2bd
3d486895
be81b65f
3cd210dd
3cffcd83
3e444255
3e3a0a7a
bd8e7a3a
3dab6f75
3e037441
3d6200b7
bd27ea19
be29005a
3db1fb27
3e7b6bc3
3e4f2ef4
3d460acb
3d809779
3bf834c1
3d061e3e
be02acdb
be41f30c
3d6b6480
bd00750d
3d8088da
bc250fba
bd8b1e32
3bd41ca1
bd98ec26
3caa3251
bc50254a
3d3992e0
3bd70a04
bd44d31b
3c4fc8cf
3da3942a
bdbf75f2
bdcc51ec
bddca58e
3e08de68
3dc695d1
3b47797e
3d7de906
3e129ce8
3d3a3415
b994300c
bd366624
bde0c251
bd5a0a59
3c861930
3d9df24a
3cf8fed3
3a66f63f
3d386ab3
be1e6b9f
3cb824eb
bcd43d5b
3bbc9230
3de48f1c
bda88dc6
3d8afb13
3e0389c9
bc03eb2f
3d82adc7
be2e2987
3e3f5849
3e711458
3d69b09d
bcf64c52
bd22b43b
bdc24152
be2ab8db
bceb8ad6
be1994c5
bb4ef33a
bd47cfa8
3ddcb503
bcb04c62
bda4f7a7
3e160f86
be4eea02
bd9f9c2b
3d73c201
bd7b9b4a
3b9f91cd
bd0806d5
3e1305a3
3cf97966
bb91d0e9
be40bd59
be5202da
3e17bdad
3e1773b6
ba1c0663
3d880847
3e17fbaa
bd15fed3
bcdff647
bdf72dd6
bdeacebf
bc840f8b
bce80e24
3d4d3daf
bdb0ddb9
bdd2dff8
3d0bd1ee
bda5425d
bd4b684e
bc4e2dad
bc039704
bdbcf3e2
bc1ebe99
bab74348
3e473f49
3e09f709
bebca579
be7dd086
3d4f197c
3e8c25f6
be3d0636
3e16043c
3e096905
bdf51874
3dd1d276
be189c32
bdce6a04
bbee7337
be101040
3dd0081d
3d7c4a71
be83a53d
bde109ac
bd54dec6
3e8fbad6
be579319
bdda33d2
bea22dfc
bd901d77
be5a4137
3e24b8cb
3e9c905c
be20347b
bea73fec
3ebddba3
3ed244b9
beda4301
3da02c32
bdae851b
bed5754c
3e33a6df
bbd5cbf9
be17114b
3ebd0712
bdbb001c
3dc4fa8d
3ea3a3d0
bee6cb9c
beb775e3
3e8c970b
3e495da6
bdb89509
be337cbb
bcb25497
bdbff319
be3175a4
bdb04d11
3e809971
be18e435
be991181
3ef9dc46
3e4b79b6
bebd33b6
3d6be781
be4cbc8a
befff925
3e45ad8e
bde717c9
bd4d07e1
3e5ed5b3
3cfd1547
3dbc8eb2
3ee248cd
be800142
bed03f88
bd76c821
be15fe81
3e42e188
befdb9cb
3e261561
be90709e
bd8521bd
bb8e118d
3e703d94
be3abb0e
be03c272
3eabbd7a
3e4fba80
be96f3e2
3d0528a4
bdfb0756
be7b5d5f
3e7e549a
be3d23c3
be3fe2de
3e4bb52c
3e32b966
3ccba1d4
3ea14736
be2145e3
bcd63f9d
bdd64754
be639fc5
3d9b6efa
be7f76f3
3daeb7fa
bda2b5ac
3e1526a4
3e142aa0
bdbfd8b9
bda3b056
3e2e50ed
be2284b8
3d6918f5
bd0d41bf
be244b54
bdc48878
bdd3eff4
3e864201
be635a85
be3ffff5
3d4c2c8e
3e836728
3dedce66
3de79110
3d1c8d72
bd80a895
bd71782c
3d967355
bd53888a
bcb8b5d0
bd85f68c
3cc340c9
bd54f0d4
bd3c2c9a
3d1180d9
bdb153bd
bd89f8ae
3d1c45db
3cd3d0ee
bd8ba904
3dccc989
3da59639
bc7cb480
3d3cc821
3d335fb7
bd3c4f83
3c61eeb4
3d6a1168
bd4b5131
bd262739
3bf5cd65
3da256ef
3c953f06
3db13f30
be2d607f
3c880c7e
be93f8d9
bd39d848
3e92846b
3e5590d0
be8ff94b
bd77dc1a
be31528a
beaae775
bae2279b
3d8b1093
3e83650b
3e8163c8
baa19290
3ddbfc59
3d999d38
3e856c54
be7fff44
3dfb6c10
3ca304bf
be955c78
3e51e76d
3e93d140
3dc329e0
3dc1e99d
3d573291
bd19420c
3e075b56
bde95064
3cf3bd5e
3bfb690c
baf78131
bec0d3fe
3d995f87
3e347f83
3d252807
3e5f9e74
bc11dd67
bdece703
be808956
3e31c5e1
be127b89
bd2b0b63
be360be0
3dac6485
bd815f38
bda64e18
bdbed0b6
bd973ac9
3d2987a6
3e387224
3e5d0ed4
be9326ff
3de658d6
be1fcad3
3da523db
3e0542c6
bdc36d8b
be954593
3d4b9d04
be810795
bde2d2b3
3eb91f18
3d0df5f7
bc3268d2
bd27eb71
3da1cc87
bc046ec0
bdeafe43
be88c847
3d00a5d4
3dd8136c
bd2025eb
3e75f5fe
bd5a8ef9
3cbf7134
3e8d25cc
3d81c6eb
3e01544b
bd720a19
be1a2c1c
3dad936e
bd80b7c7
bebb41e4
be1369d5
3e332868
be8142ab
bd69c3f9
3eb7dc5f
3d91f974
3e735105
becdb97e
3ea42367
bd92aabe
3e1cb1d5
bd80de99
3d57fa93
3dcfa8bb
3d3d1c5f
3e381d46
be0e396c
3e192c42
3e2c89ec
bdad864b
bd8cf48d
3d6789fd
3ce23aca
3d632ecd
3db57089
bd50f7de
be055e85
bcdea1c7
be89796b
3bfed73b
3e2781f7
be0d43e8
3e9a976d
be73c828
bd32e6ae
bdf1b048
3dbeed1e
be5b15a1
be1f7e00
bb1b2c48
3e8ea152
3e4a170b
bd6c1ac5
bd736aaa
3e3e8724
3da0f02e
bcddf29b
3d9b9bf5
3d660d41
3dd18342
3d50178c
3c7831da
bc8e9017
be3a8997
be55946f
be926fb3
bd58c184
bd138c65
3d4a2f55
be58c7f7
3e0cf3f6
3ccc4d97
3d74333a
be13b562
b718da40
be449f88
3e6500e9
3e1f84fc
be141407
bd0174c2
3e1c3740
3d9a1d1e
bda1c388
3d845033
3c9b2d2e
3d5cabc5
3e06fe5b
bca6ecb1
bd0dfc9a
3d20f0ef
bd6945b0
bd358537
be08a1a7
bda93e79
3d95fe03
bd94b833
3e60b01e
3aa4409a
bd74ee95
bed77c4d
3e238ffc
bdc63fbe
3d5fd43c
3d8376b8
be61188f
bd940420
3e175be0
bc374ba4
bc4e6aa8
3d1deb0b
bdfae5ae
3d9b26eb
3e4608ab
bddfdffa
3c8fa924
bcaeea73
bd4107a8
3d4df651
be207b46
bd901647
3ce64fe1
be1501c7
3e40dd36
bca5f163
be16fabb
be65882e
3e1a041e
be1e6b49
3d89fb26
3dc5dac0
bd5147fd
be0003e1
3e7a0eeb
bd103c76
3d460c14
3c7e229c
3d1bbdec
3e47f8fd
3e511b04
bd28c8b1
3d88ba50
bcf23a67
bd6cc018
3da03795
bde25144
3df204e4
3da1e62a
bd5093c3
3d8612e1
be497352
bd8c9e01
bcbe9dea
3d7e0832
bcd93f5b
3e00fbb6
3e6c0aeb
be8030dc
be308313
3e4ca44c
3cdc324e
3d5d5700
bd5c0d49
3b7becd2
3d4b53ca
3e303004
bc868607
3e09aa43
bd64608c
bd15398e
3cb31bd1
beb57bc7
bd114fff
3d26477e
bd183de7
3dc06071
be1c8a4d
bd67c7a8
3d89f392
bd257961
3d8f01ed
3d8d19a7
3e5b914e
be1b4905
be2c7cff
3e26be4f
bd786970
be513b5e
bdce01d4
3c229e50
be39bd2f
3e2489f5
3db670de
3daef9b0
bd8e25db
3d4b9b52
3df3c494
bf0c4a7f
3e183ef2
bcf75692
3d38b691
3db30ecf
bc8ea948
be071bac
3e03bec4
3bc8fcf4
be46cd89
be1c17e1
3e59e940
be9b8f6c
be88ea5e
be8f729a
3d823f0d
be2ed35d
be2ebefe
3d692520
bd9ccbcd
3e22308f
3bd45196
3896bb77
bcab0c5b
bd753c0b
3dc01d8c
bed1e0a0
3e09e66c
bd1e9311
bd7daf42
3db093e0
bd46d9a1
bcbe1ad7
3e491e8c
bc054bd6
be18c55e
be77a0a4
3e690d00
be2662e1
be87e8ec
bec71d36
bca7d1f5
bd806819
be23f8b0
3e045a77
3e0998ec
3e2b5aaa
bd2756d6
bde870bb
bd945a52
bdb60d07
3d2de68b
bee94d7d
3db1ca00
3cbdd6eb
3c98ad16
3e1b8972
3e1b4c02
3cc74a3f
3e29c8f7
3dddbb35
3dd621be
beaf5159
3dda74db
bed15bfa
be901308
bd74090f
3cb0f695
bd8cd736
3d634c52
3e0f6687
3e71fc61
3e26f343
bdd3ee34
be008cdf
3de9a5df
bde263c3
be03c224
be7560ea
3d9a967b
3c5f4e2f
3d8c13c8
3dea651a
3df5a666
3e1494dd
3b9fb0c7
3e803bbb
3e54d65f
be998d35
3db4b21f
bec56de1
be073b4f
3d002db5
3e31d560
bb858da6
3e87b766
bc93686a
3e903e68
3e3ad271
bdd3ae39
bd5e5f46
bc87b8e4
baa96b49
bdf567d3
bd8638b0
be2ac1c9
3cd41d3b
bcf04eee
3d96ec63
3e307e54
3e79f606
bdbe1aac
3e2a0852
3ed157d7
3ad71bf4
bb27934d
bd78d0a5
be42fa9c
bd2676db
3d9339e5
3d56203e
3dbdc1c4
3d8ad0e2
3e70c618
bdd3916c
3d93383f
bdbc00b9
bdddd94d
bc8a0e49
bdb8f7e4
3dd74c36
be1ef117
3e31158f
bd84ffe2
3ddf0846
bde3d2e0
3e560b40
be5d3cb8
bcbac046
3e8e5259
3cb479d4
be3458c6
3e857fbb
be18c10e
3c2501b4
3d11bc6d
bdfe4188
3d0fa8df
bd6918ea
3e660ff4
3c3d1271
3e053273
3d79c9dc
be74127b
3c6558f2
bdffd07b
3e7f71c5
3c77b7f3
3e3fc0df
be14220e
bb4a50d9
bdc316b0
3e167992
be1aba1b
be36db00
3ed6af07
bd39b195
3db48c1f
3e33438e
be1707a6
bd2c8e8d
3d8638c6
3cf74efa
3db6de6b
3c8a3027
3dc99efd
3ae16191
3e30ccfb
3e35174a
be47dc98
bba31dc4
bd624437
3e9afa65
3e20b16e
3dede93a
bde3ca00
3d678000
be493be7
3a4ac6cc
be20a330
be814b5c
3e99d1c9
bdb129ba
bd89a75f
3dd4ce3f
bc71bbff
bdf0d10a
3d7c2094
3e6bb422
3d743871
bc9c680d
3e58df37
3d6381b3
3cc4a1f4
3da31f12
bdeece77
3d9042fa
be1351c8
3e693cff
3da1fcc0
3e421e0a
be534368
3d6de604
be4b4c06
bd73e673
bd8c89ee
be4b1949
3eaf2e70
3b88ab73
3bccfec6
3dc4ded8
3a8941d2
3c8f5d2f
3c8dcc2d
3e7470da
3e01c737
bc99fbe8
3e310a42
bd8aac15
3dca5b89
3caddea5
bd420a1b
3d7713ea
be5affe7
3e489c58
3e1f078c
3e73ecb1
be371396
3e31335c
bc95310c
bd4e979f
3c950f0b
be0fbcdb
3e55a2b0
3d1e48a2
bde5106e
bd16d1d2
bd652218
3cdfdb2f
3da36962
3d083522
3e59e77c
bd66fc47
3dff00fb
3ca8f2ca
3ce9dce8
bddb2044
bd1f69e9
3dcec21a
bd69c45e
3d688e48
3e06b89d
3e5ebff8
be7db864
3cc9f8a7
3d77aa8e
be1279d0
3c54ca0f
bc9cec6c
3e8ff884
3e02ee2e
be13f9d3
3e036a76
bdb9ef7a
bdd69ad0
bd3332ca
bd6f16d7
3e253aed
be0a3ce1
3d94700d
3e1e6ccf
bdd89cac
be4cdd2c
3bdf044d
bd3e5c59
bb7229a9
bd02638b
3e6214d2
3d901170
be600869
3e1459ad
bcd2269a
bddc1ef5
3e2669d9
bc37d7f7
3e4d6838
3decab71
bdb16718
3d822824
ba099ac6
3d700931
3da70539
3d18ff8a
3d6a8372
bde42ba6
3d9e7b8b
bd8092b8
bc42b89c
bea98cc6
3d63a8a7
bdc5b6e0
3dfe4e75
be5f3e92
3daf666d
3ddf0064
bec89aea
3e37d8e2
be1cf520
bdda70a2
3df6b48b
bab48379
3e064fbc
3dcfe64a
be0aa6c5
bd50cffe
bd88513a
bd044860
bd9c139b
3d2763bb
be6da1aa
bde71aec
3d4cc30b
bc5d1a8d
3e670e6d
bee62cea
bd6d1e99
3e4e8d38
3e853f44
bf0bf992
3e1907c2
3d22c52a
bee0723f
3e640e27
be871145
be7f5361
3e8f598d
3e29c388
3ea27f2f
3e0aad89
bdc56605
be1c86eb
be38290c
3ea23a14
bd21b369
be36da3d
bd7b4072
be874114
3daa9803
3dbb67ed
3e66d502
bf152302
bdfc02fb
3e00991f
3e81974e
bea9f9f7
3d0cfeeb
3da2dadd
becd1f3c
3ec32d9c
be85e55b
be98c7fd
3de0bc2e
3ebac4aa
3e8e7e9a
3e9e203f
be6eaafe
be3273b4
be4c529d
3e704d5c
3e0a6205
befd7ad3
bd8749e5
be8a82e2
bddcb666
3c896ad5
3dfa08fe
be7b3d1f
be66d233
3d16a747
bd8c694b
be06d4a4
bde1dfe5
3db9359a
be7a73e0
3ec27168
be33b6d0
be9e62c3
3e4aa7af
bb50ea8d
3dc4b241
3e3bac8a
be4a8ef3
3d45e7ec
bea15725
bdbeccc9
be97f98f
bbfb1027
be6391b9
bde69e28
be8822cb
3e8a499f
be3bff8a
be02189b
be306faf
be4103a4
3e51fd60
bdcf3e72
bdf0b533
3d8adc91
bdd10942
3ea95f13
bea56573
bbdf0ee4
be9b4576
bd8c5106
3e7ace9c
be426568
3d5d17a8
bdbcf970
bcc5a0a4
3cff5042
3d36dc22
3ca497d4
3c87c9a2
3bdf7cd8
3d4f7240
3d4bdf93
bd5f8d60
bdcfa50c
3d1fddb4
bdb19443
3c7cabe1
3d9709c3
3db1710f
3d460a39
3c9569a0
bd857d38
bd0b708d
bd0883fa
bcd13077
bd2b951f
bd883aaf
3d8c7a89
3d8026dd
3b8bf0c0
3c97296a
3e160e39
bdc64826
bcf73c3c
be5d0952
be0bf662
3dc3c38b
3ddf14d9
bdd6a958
bd9cdee7
bdd443ea
bdf8faf2
bdfcb666
bd873291
3e68ea0e
3e5004a8
3e45db67
3d86984e
3e2924f8
3e808bf9
bdaef524
3da3198c
3e464eb6
be5f1e9d
3e62666e
3e6d7a46
be4a9b3b
3e888ecd
be96ee80
bd9f801c
bd9cfa9c
bba5bc5d
3e4a17bf
bd3ddd0e
3c2265b0
be43a090
bdcea35c
3c6bf6a7
3e69fe3d
3e58abb5
3da58c22
3da83872
bc89f439
3e217c2e
bdd882a7
3da60097
bcfca108
3afeb812
3d2b12ac
3d7a2ecb
bd834ff4
bd55ed83
bc93e369
3d423304
bdda98dd
be23ad8d
3d096f0b
bd8bc057
3e49812a
bd4fc6a6
be4d742a
be8c3061
3e2acec6
be977dbc
3d0cc594
3edbe37d
bb775b0f
3da14468
bebc7e9f
3dfc4f46
bea2afdd
3d8f84f7
be1e6d8a
3d2e1602
3e2b6d65
bd56184a
3e599f81
3dd433e5
bd94a841
3e2621a4
3c8cfb02
bd014aef
3cd5833d
bd949c78
3cd67712
bdc57bae
be389785
bd9d9d90
3da837af
be6852dc
3e08ebd4
3e294eea
3da283fa
3dbac432
bef4f94a
3e54a128
bea12b55
3de1713f
3cdafb47
3ca1b61d
3d7f884d
3e5daf77
3decb6de
3c4bd698
3d632372
3e8ca2a5
bdd1b8cd
bd920161
3e5923c6
3de52a68
3dfdacce
3dc0acb6
bdf8acda
bc3fbf11
3d827953
bede8a4c
bd7dcc72
bc4787cc
bc6ebbab
3e99ffb7
be30f5b3
bc05765a
be396e38
3d040cc0
bbc3e3f3
be0d5929
3dc4eae2
3e0853fc
3e9588fb
3c68a030
3b807113
3e21dc73
3c8caf8b
bc126655
3dbbebd7
3e61c0f9
3ca37d88
3e33be0d
3cbae93e
bdce158e
bcc2fac3
be7b135a
bd9f5ae2
be03a6bd
bdee4dce
3db9ef95
bd5d7d3b
3e57e173
be2350c9
bdd3c6da
bea915cc
3ce1bbce
bd0b00ca
3e560d62
3e9a2e2b
bbfc1232
bc73924d
3e26c9d7
bda5ba31
bd388cbb
3d986dfa
3d43e452
3d94e778
3e27ee78
3b7ecdb3
3dd64d37
3c096fbc
bc53332e
3df255ba
bebc0949
bde4fbd2
3dc5e0de
be0ba9b2
bb1609d8
be00774d
bd822393
bef7ae57
3d87dbbf
bde14a09
3d94c488
3dd790ab
bd69246f
bd4c6e1c
3e8783e4
bcbc0dcc
3a9992ce
3d943434
bbafa9b6
bd492a57
3e4e7619
bdbf6d53
bccbd66b
bcf10549
bdfc5d26
3e5a11fe
beb92016
3d172961
bde997a0
bdc87112
3dbaf601
bd996000
bd0a0b51
be3d6c11
3e2e01c9
be297863
3e1d340c
3e1e5e72
bcf0647e
be29863f
3eb28ad3
bc21e769
3b2f7787
3dd482ca
ba7974d6
bcf32f95
3e823ed4
3ca20389
3e1a13db
bdb1b55d
3d800418
3e38760f
bf24aedd
bc8019a9
3dd36feb
bd21165b
3d838d2b
be127626
3c8e2b4e
be0c1d45
3d9a4743
be07ad47
3e76a9e6
3da3b0ce
bdea8cf2
be27ea20
3ec6dbe9
3de5157a
bdba9c56
bdd2b468
bdb67395
bd93d210
3e57eb47
3daab7e8
3de65ad2
bd95a7f3
bd931157
3d1217e2
bf403b44
3e1bd60f
3e1c4837
bc8e6ab0
3e0a39cf
bdbdf0dd
be452578
3d004d93
3ce8cab3
3dc3b519
3df45ee7
3e14c35a
be5ea668
be0bc4c8
3c6b1c8d
3e18b018
bdc3b6de
be262134
3d684987
bc81e8b7
3e30e2d4
3d2588d3
3e04ef33
bd8c1e58
bd076920
3dc14a04
bf3eea53
3e521e3e
bc8195c2
3d769f8c
3dc7b6fb
3ce00a9c
bd6eb35a
3d821628
bd91987b
bc4a0750
bc22e6f0
3d5df10b
beb28a1a
be15237f
bea481a5
3da06df3
3cc33059
be3b7573
bc158fe5
bd4bc46a
3d4c23ab
3d26cb56
bd506efc
bd3a7f5c
3dd9c7ea
3d1d304e
bf17b9c4
3e699cd7
3d9eeecc
bd983d88
3e2eacfd
bd159b1c
3cb6c1bd
3e7ce3a0
3d931ee4
3b2b2943
be5154fb
bdbb7ec7
bee35db1
be2b58cd
beec8c63
3e12badf
bdf619cf
be44d455
3ca2e5e6
3cd067ef
3e3edd18
bbbc10c9
beaa72ca
3db50184
bc3c68f7
bd316c1f
bec47b0f
3e02eab9
3e1d97e3
3de4b036
3e8c6202
3db17a88
3e59ee5d
3c401e7f
3e81e2bc
3eae22c8
bec3c464
be2bbd6c
be9bb6f6
be30750f
be22bd10
3e63f3df
3e448118
bccfb2b0
3dabc877
3e096155
3e539108
3c823acd
be89fd4f
3bf88fc4
bac94867
bdf04fc0
be708a16
be1a60f9
3ddb5513
bd98ea8a
3e758550
3deda334
3e2eff72
3c31913e
3e36d423
3edee4ea
be979bae
bea91e5b
be10b340
3af934a4
bcac186b
3e41376a
3d786b6b
3d4cdde5
3d304b52
3de17598
3dfde08c
3dc2c7d9
bde3cfe2
bc981372
bb917355
be7c7357
be02848b
be661cdc
bc3d0a83
bd2b3439
3e20d45c
3d80b17a
3e4ba2d3
bdcd532c
bdbc84cf
3e9f06a7
be1efb1e
be32682e
3e65e970
3bdc0661
bc95ba62
3df5e703
3d02a00e
bd67ad7c
bd8391aa
3e875586
3dbe68e3
3d764361
bd5c8ac4
bdce0ab8
bdcfabcd
be1cad17
3d96ba51
bdb43683
3e304763
be2d87c0
3e053931
bc084dad
3e08b724
be075624
be1f9b39
3e598643
bde0baa2
3c80a1de
3ecf4b83
3d10bcc3
bd78afd9
3e1c255b
bd9bf733
bce9cfb1
bd14c654
3e378959
be2a5982
3e0c2dfc
3dc2683d
bdb1c95c
bd1ab06b
bdccbe4c
3ebfd49c
3d925c0d
3e06479f
be694489
bd1a2de5
be0528f5
3e2918b1
be57c10d
be55c9bd
3e8f0a99
bd644b09
3d933628
3e1e041a
3cf2ea2d
3c78757b
3d9f12cb
3d01a199
3d363668
3d4a2cc0
3de884ac
3ce21110
3e352c5c
3e5d24a9
bd1f200f
3c8b4187
be86ce79
3e690d82
3de9207e
3da4093c
bea3dc6a
3dd1a601
be69b21a
bc98fa59
bdc88bc7
be655dac
3e62851f
bdd9a64f
3d24871c
3e561f89
bd035238
3d91ea1f
3db0e89f
3d237145
3e2796c0
3d42c191
3e12bb1c
bcf004ae
3df4f0d5
3e0bca37
bc88391c
bd90f556
beb49ef8
3ea8a560
3e14658c
3e8d3a71
be9155df
3e66df2d
be79f3a8
be29cb46
3c9c796b
be4ae254
3e84af28
3d7739de
bc869e99
3e23f418
3c806e52
3b10ef10
3e3467e1
3e3ce22d
3df6f7a7
bd81053d
3e4b9d2f
bca71c57
3dbd35a6
3e1ae84c
3beb7e88
be04e069
bedaeff9
3e178129
3e42d261
3e827b12
be4fb44c
3e930a5d
be23cea3
bd9c4ede
bbcacb07
be5d0d5c
3ec23aca
bdc03277
bde5654f
3e0b7363
3dca5a90
3d8cbdfc
3da3425a
3e064033
3d607c43
3df21ddd
3e032169
bcb91d1d
bbadad67
bcc2fe6a
3ce05ad8
bde8e5ad
beceef9e
bd52d8bf
3e5de7e8
3e2b1a32
be87e276
3e164cab
bd4866be
bd4dcea6
3e03d15f
be43523d
3ea5c89e
3d3f952e
be025cd1
3e0435db
3cbad723
bccab8dd
3db5fad7
3e8ad5bf
3df1c455
bac6ac2e
3e2cb7e2
3cda9522
bd254afd
be772c3b
bdfcb4f3
bd63df88
bea3f9f8
bda5a466
3e547e6e
3ea36bcb
be831463
3de99f2b
3cbd5288
3d119200
3e5b471f
be2247f5
3e95a190
3d935b6b
bdf54012
3db1d229
bce81ce6
bccd2e79
3d824406
3e4a2c06
3e3fe71c
bdadd903
3e58a989
3d052406
3dabe348
be9b29c1
bd9488c3
bd7168b1
be9cbdd1
be46c2f0
3e0a4157
3e37b734
be9e7819
3e868cc2
be30bc70
be77f3fb
3ea21bb9
3caf0486
3eac636c
3e42d941
bdad5f96
be76ae49
3dc0b21e
3d903323
bdb4977d
3caaaf94
bde15dca
bd79b4f5
be106461
3d1c6422
3e228196
bed49da0
bdf42715
3d9140ac
3d163796
bf3cacb9
3e9c3120
3ddbc4a9
be961f70
3e86949f
bebb2007
be4cb950
3ea582c9
3e5489a7
3f13ca83
3e45d4e9
3daa8a8c
3d11f14e
be64b0fa
3e8b23cd
be476587
beaebede
be92c8bf
bec6c6e5
be831cd3
3ecc65ea
bde40ce6
bec930b1
be8d4220
3d9dab3a
bdaad644
be02f5c9
3df3b31d
bcecc1c7
be71fccf
3ecb27b7
bde4bd7c
bd9b0c8a
3e44a7db
3d20a47c
3f004111
3df48cbd
be000115
3d3402f5
be37f435
3d5e2d8b
bdfca7bd
bebaaf52
be4af138
be24c4e6
be6576b1
3e9676bd
be462455
be288fa7
be7cad65
be37c7da
3d0dc4bb
3d409658
3dce78c9
bb5826ec
bd24fa72
3e7c130e
be76b4c5
beadf79c
3c5101c6
3d046587
3ee8785b
bd9d464e
be2d16a7
3cdc423d
becec188
3ca51719
bdf9078d
be019cec
be1465e0
be0f3f43
be75fe2c
3e7949db
be89df00
bdda0ca3
be682f94
bec727ce
bd196033
3c7038d5
be20690b
3e0180a9
3d5d8099
3e866a0b
bbca1669
3d368bcb
bddc7750
be11dc0e
3ec7b7aa
bdff070f
3e5300dc
3e665923
bcfaac0c
3dc1bebd
bd7dd7fb
3d5d5c9e
bd637504
bdb6cd1c
3e01f1ae
3da135c0
3ce4fffe
bdf3b8a5
bb8bcf4e
bdbec025
be137c92
bc8fa522
3dc8b098
3dbc17cd
bc5d8210
bd74148c
3c8cd8ab
3e0fb3bb
bdcfdabb
bc734956
bd171ffa
bd346e56
3cc66972
bd0ca583
3cc34bfa
3e7920be
3bcbc7ad
bbc575db
be102be0
bd9e0085
bca33e8a
3e02cd29
be112c2a
be21fefd
3df7cef0
bddeb619
bd1f9d2e
3bf64a11
3e534c83
3e55c5ff
3e241cfe
3c7b8c49
3e3aee61
3e3cc6e9
bd0cf0e8
3b54d538
3d507348
3d20930c
3bd64f65
3e567833
be0c6321
3ec9e381
be820eb3
3e656ff4
bddbb391
be44f31a
bc162ab9
3e010cff
be2c749f
bd5237f9
be025844
bd494eda
bdc6242b
be33b082
3e8a3d79
3e14e726
be81a68f
3e368674
bd939109
3e93f862
3c807080
bd929a97
3da4ad06
3d18b528
bc5d8095
3e136cb0
bdffdd2c
bd1512d0
bdf599d1
3d9bd9cd
bdd23698
3c9bc974
3e8c2b97
bb49eea8
be638103
bdded0b4
bd01d871
be8b80de
bdde60c5
3e12264c
bbc8a8f8
3ea45a21
bebabd40
3e6b17fe
be0cda23
3e92143f
bd79b9c4
3e61abec
3dd24905
bcbca727
bd45548e
3e0cdbd8
bcb35219
3df1fcea
3de3752d
bdae2ce9
bc2beccb
bc589072
be204ea4
3d6835b5
bce5e842
bda9b302
3cbc0878
beb9071a
3be10c33
3c8a581d
3d5d460b
3e1a205d
bea5ce67
3ea07fa0
be469a1d
3c71ef18
bd5be47a
3d1da6b0
3d3823cc
3e7ceddc
bd393be8
3ea326af
3d3f9a1c
3e33b0f3
3c242911
bd92a224
3e5d4270
3da294fa
bdf38d2e
3e4a679f
3cf6880b
3d481b5b
3d908d17
be381dd5
bd103c44
be9390fb
3d028bf6
3e062532
bda63710
3e514149
be68f519
bc003970
bd305d87
bdf06de5
be99b86b
3e92bdf1
3e16770b
3d9baf7b
bddd22ab
3e987bfa
3dbf6a0c
3c8063d6
3c73ecfb
3e6d7302
bc9784b7
3e019c4c
bc614bb4
3df6f775
3d73f3d2
bdda4307
bd0d2447
beda3387
3ceeec95
3e029d61
be80848f
3e057303
bdec87e0
bc8a83f7
be6defc3
3d297d14
be0ea725
3deef961
3e42f71a
bc12faed
bce84968
3e0c45a1
3da09cbe
3d3d0b40
3e4c8093
3db5c8f2
3d213e6a
3e56bf10
3d3a326a
3e5188c8
3d48e0d9
3dc40102
bdd083a3
bf224185
3c6d0585
3d43040d
be7250d6
bdbafd76
3cbb9c2f
3d8deb47
be6caf5e
3d6a0416
3c3732e9
3e0eb205
3dd60105
3e2545d2
bd96738e
3e127c86
3dbfc0d1
3d4e7a2a
3e0d827b
3c8d5a6e
3de64c96
3e5f0472
3d48bf5f
3e3bb4ef
bc934aaa
3d5e9726
3c2f008a
bf286f47
bde79260
3da0127d
be13497b
bd081420
3daa1af6
3e0a3c7c
3bc09cf8
3d97a684
bd2e3408
3e7990af
3df4fb74
3e1d42bb
bd515913
3eca883f
3e03f806
bbcd6bfe
3da4a24d
bd3c6945
3da21dc0
3e60f274
3d79fcca
3dab79d7
3db1ac68
3d2cff45
bd5f0a70
bf1a244a
3d250769
3d98d27a
be2f852a
3d83e5b0
3d4ee52a
3dcf33e6
be11bebe
be299bce
bd08beb1
3e91738d
bdc65d7d
bdeef89f
be1a7fb9
3ea831bb
3d45a0e8
bd061b31
bdef2cdd
bb314c34
bca5e7f4
3e1c2725
bd90e5fb
3e6e868e
bd0d3705
3d87790f
3d6f0862
bed726fd
3df906f1
3d9077a2
bdda53d9
3e18494f
3dcd6070
3de7ae70
3de53797
be123b6b
bdb79b1e
3e9d0a43
bda648ca
bd8d83de
bd60d18a
bdea4555
3dcd7b09
bd3a7263
be6b0239
be05bcde
bc7d559f
3e11f92b
bbb3f0ea
3e2c7255
bd687251
3dca5035
bbce0b0c
be77b808
3e5b47d6
3dd3368a
bd9c7db7
3e3cc35b
3ca025b7
3e1b26bd
3e51e505
bc5c1ae3
bd884af1
3dec7caa
bdea617b
bd6db903
bd6ecc3d
bed935e6
3dcc9ce6
bdc8f826
bde51438
bd584c7f
bde18fff
bd512355
3d435256
bd3072e9
bca591cc
3e77351d
3cada14b
be0485ee
3e68e2d7
3d56350d
bdf3d80f
3e817454
3e159216
3e330de5
3d692b27
3bb2338b
3d202549
3d894d5d
beb3f64e
be3dd9a4
bd3526b3
be833d54
3df7a8fe
bcaf5409
be4a3e3c
bd4bc0da
bc1a21d7
3dc3ee62
bd466e25
bea69af3
3d834381
3e0297e0
bddbee3e
bdd65ab9
bdbe9b74
3d78855e
bdf24083
3e8876fc
3df2de4d
3e28cc3e
3e2cf99e
3e8da5a9
3e9ab4c2
be5d3df7
bf355c1f
bda333d3
3c35dc61
3c944e76
3e6aefdf
3e34ca98
3dece7fd
3d936fb2
3d69034c
3e71da60
3d739186
be6abfbb
3b84c8e5
3e0faf46
be8d1d3b
bd097b5e
bf1889f3
3c5f35c7
bcccec3d
3ed54fb5
3db347a6
3e789208
3e595fcc
3e323fd2
3e458943
be92a0ab
bee0bb30
3e038934
3d8a69e3
bcff3339
3e4e2b6d
bbcc4c7e
3d9796f6
3d5a14af
bb5adebd
3e9bd3f1
3c3efb78
bd251ce4
be84dcbe
3dbfd7b5
be57c3ae
be050205
bed07d62
bd9f3946
be08db5e
3e984960
3e0f6ed4
3dca5dc2
3db738d3
be3f5d58
3e11b10b
bd93ba9c
bb7c55e4
3ebec513
3e6c3c40
3dc3d5ac
3d90aa51
be65aa98
3d4bd00e
be27f90a
bd8b25e9
3dd58b80
3dfc441a
3d8ee142
bddad8d3
3de1b8e6
bd3d89bd
3cc8013a
bdf11a8b
bd84e95a
be10197c
3e44ea57
3e222842
3e08ea0c
bd636e7f
be368cb3
3dce81ec
bda66b74
3d7d4b36
3e8850b4
3a771ad6
3d7ddca7
bcb82d12
be464114
3d4cdfbf
bd6437e4
bd5c87b6
bd847173
bd906092
3e8ef36e
bd23b9d4
bcc283d2
be62b3e1
3e46ba16
3d5fadac
3d206576
beb6a6c2
3dcf4aff
bdefb983
3e541729
bc01b0bb
bda8e50d
3c7f7c6c
bde99976
3d9d1a15
3e5016fb
3beddd25
3e24f06f
bdcfa3b6
be2c7243
3dac4e40
3d84c3b1
3d99e879
bd4e2d60
3dc7c090
3e590953
3bfcb6a4
bccbfafe
be7bd66e
3e18b547
3e14fb80
3d60a14d
be86136c
3e50214f
be73fd99
3be3b754
bd44d648
bd9ad44d
3d678f42
be3a5ee0
3e2c456e
3e90f149
3e2f3abd
3de754c8
3ddffcb2
3be34f36
3d9509e5
3daa17de
3dc07fc6
bc1f0c76
bd03ec39
3e8e1189
3db82c82
bd375655
be91ece8
3e5a79a1
3d0e631b
3e000cc1
be1f84d0
3dbca2f3
bdf5c135
3d652ba3
bc84d758
bdce0adc
3dde21a2
bd15a42a
3d56e41e
3e1fe19a
3afdf064
3e1913b3
3e4beb65
3cd10d21
3e25574a
3d71c7c7
3d6d8c98
bc314819
bc068975
3e507a6e
bc9c04a1
be623bb3
bf103f4e
3e0a68a0
3d2fa683
3e80a428
bdd1d0d0
3e175a49
ba962589
3e0d69ae
3d5d4cbf
be304698
3e6460f8
be35050e
3c9853c0
3da9ea06
3e1e3ce4
3e710799
3e836e7b
3e6ac9f1
3d4ca392
3e86bd11
3d72eeed
3d204d6a
ba7ae4d6
3e3d3c32
3d77c037
be1dd255
befe74c4
be4791b4
bbcc719f
3e5a6158
bd8e20a8
bbd3758b
3cf2f54d
bd72b060
3e42259d
be74b45b
3e79ff47
bde905e2
bdd79e20
bcbe7983
3ddaaf14
3e60e267
3e0ba50c
3eb0178d
bd246f3b
3c8d292f
3e3c335a
3e206351
3d4ba949
bdfffea9
bc81b7bb
beae5154
bf200437
bd8e7e7b
3c408605
3ea128d3
be86051f
3e31176f
3c9bc818
bd0522f9
3e658841
be2b3ff0
3e8d1c8f
bdad9937
3c690b90
be290fc8
3dee2286
3e2dbe37
3d962ddf
3e823a27
bd15891e
3dbe1c29
3d812c6b
3e16fa33
3dcc3752
bdca672b
bd725edb
bdc5470e
bf0967e0
beaaec25
3da2a9b3
3dafd019
bcf50535
3e3de44f
be68f213
be34ddac
3eb086a9
bcc606f3
3ede3841
3d9563ae
3dc02e6c
bd2b9686
3df14a34
3cf0a234
3d371279
3e4e0e58
bd711142
3afd3bc6
be4dcb2c
3e28c138
3ee1c7e3
becc3a3a
3d99a860
bd05eee0
be7e1531
be837682
3e284d7d
bd992906
be69a082
3ec23549
beecbf35
bec9e298
3ea5a301
3e4458b3
3ede01e0
3e67c812
bdb15fee
be949106
bd7d6c3a
be0286e7
bdb372e7
be4ac31b
3cbbee05
bdf37a88
bd8d49ea
3e631830
3daeb71f
bf0acfec
bdc5499d
bd491b61
be00350c
3d074dbd
3d344572
bd7d871b
3d3d12b2
3e0947d7
bec8f84f
be69f08b
3d6def99
3d8cb59e
3f01e7a9
3eab31da
be31f699
be3850b9
be923e53
bd299777
be00a77a
bec78a4d
bd888040
bd8aad89
be398aa8
3e3c02b2
3df5600e
bbde1fa8
be8e018a
3d911e16
bcdd2744
bdf795f8
3dc51107
beadd433
beb78519
3ea7884a
bed0c4b3
bee3c91c
3e29b840
3eebc5b6
3eac71b9
3dc63758
bed896f7
3d891236
be2b5810
3e17be47
be0a4c11
bc2b1345
be18741a
3d17312f
be1fba23
3e72560f
be7a6041
bdfccbe9
be29de27
be798ea5
bb1eb247
bca7fe2b
bde8d990
3d95ed48
3e5441d6
3d5c5c62
3df21951
3e151561
be39da2c
3dc9248c
3e31b455
be9ebde1
3e07b936
3e4bbb56
bd939e6c
3ca1e49e
3cbd980b
3cd446c8
be04871f
be02a614
3c8ba0a7
3d4d5d0f
3a09400b
3c810035
3c3ba6c0
bd99e064
bde7dedf
bd01238b
3d40f5e5
3d3f75d3
bcaa35f4
bcd12587
bd8de3f2
3d51fb46
bd2814f7
3c3a839d
bdc64544
bda65254
3dacb72c
bcbf4de0
3e865f61
3eabcb93
bd2c098e
3dbffe8b
bdab34a8
be29cc46
3e25ad82
3da4cca4
bd9b82e4
bdd67d61
3e2fd910
bdcffde7
bcf82e1c
bd125b53
3e63d67f
3dff4b4f
bd8646ff
3e8c8472
3e647695
bc4a03c3
bdf9bb02
3e31fa80
bbf0d00b
3db15a0f
3e1c754f
bc8e587f
bd3c6393
3e4bb3e1
be97d6f3
3df69247
bdb24439
be934cf9
3ceaab63
3dd04572
bcadc128
3d6d9a69
be570959
bd1ffd9e
3d8bd030
bc1ad6f6
3e20b7b1
3db6797b
3d4d00f3
bdb2e4fe
3c2235dc
3e7bbef5
3e05eaac
be487f98
bd4d48ca
bc79a978
3b9c4a20
bc7637b3
be492fa4
bb953ac4
bdb49639
3d2a0781
3d3c1f88
3ea7cdf9
3ddca056
3d58e656
3e18d3f8
3c5c5630
be4336d2
be383431
3d44e544
bdf7e85f
bd937089
3e7d29cf
be15b75a
3e2d141c
bcb1507c
3e4d883f
3dfcaf39
bd4d0d8b
bc957718
3e6c3fd5
bde0a8e9
3e728487
be5b5cc8
3e519dfd
bdd2d641
3daa64b8
3e1f81aa
3c6d6b07
be5e43b1
3e8cb125
bcc96bbe
3e19a910
bd5b7100
beaf0250
bd6a3366
be62e1ff
bdbde7c3
3d286ab9
be86f3a6
3ec86f43
be846919
3d673dd5
3e9743df
bcb2c89f
bd870085
3e7cb887
3df548d5
3e9f5b9c
bcacda77
3e0d1d4a
3dcdaeaf
bd6b64a9
3e32f99a
bd9763c3
bd9597c3
3de978bc
bd4d5554
3e0b4dad
3e04b858
be730d23
be2dda26
beb4ca27
3d50d4da
3d7338e3
bda7b022
3df2777b
be8f2fe5
be5d36b0
3e434b06
bd98d623
be99ea62
3dafad23
bdca6ddd
3dc6505c
bd463368
3e377320
3e1c07f3
3e453c0d
bc8168f2
3e62c858
3d32a3c8
3db75960
3e1140d9
3e45442c
3d0927df
3d9a4505
bd82c9c5
bee84454
3df653f8
3d50c443
be64ef28
3de32123
bdc78235
bdce7a86
bd9700a4
bc596af6
bd62d343
3d8352c5
bdd26e2c
bd073c6d
bd744442
3e59f2ba
3d8c1ea5
3d7c18b8
3c206119
3c1fdca0
3c1fa798
3d5958b5
bc468921
3e0245f5
3d067b3a
3d8b6620
3d150b09
befb96b1
3d5e237a
3d8c45db
bea9c760
3da7801e
3dd83e69
3de395ab
bdf8aba2
3d1ff10d
3d2e5bbe
3dffaf1a
be213eea
3deae209
3d1ec9e3
3e9645ea
bbb89a51
bd344bae
bb0df313
bda212af
3d38e697
3e483fdd
bd6f9548
3dbe9b9c
3d238bb1
baad48c7
3d93343e
be7b325d
3d8fbfca
3dc87965
be5621c8
3df544f1
3e18b1dd
3dcd99ce
bdb95416
bc28cb06
3c9c5205
3e32b3df
be4f34dc
3e811cf2
3d222ca8
3e58a4c7
3de891bd
3dea1806
bd840886
3c0ee19f
bbacd7e3
3da1f874
3da9f50d
3e864242
3e1b1a6b
3dde89db
3d30c869
be39cfca
3e20af70
bb868edd
be549f2d
3dc2e5b6
3e102b9a
3cfef93e
ba61ba95
bc3139d6
3c91f66c
3e745e0e
be86e319
3d715fa9
3df637a8
3e248f0f
bd778efa
3c109aea
bb15c4b5
bdc758ab
bd768ebf
bd4b2638
bdd77cb5
3e05c9cd
3d0e4706
3e69fd4c
3e05367c
3d11d38e
3de64136
3d9a82ee
be280df3
3e3f4e0f
3d5fc65b
3e6f6079
bd973e5d
3d8cf529
3d733570
3e7c45f2
beef4e29
be21ce2a
3e459a57
be037397
bdf93cde
bd4840a8
be12097b
be6859c5
bd2ec1a8
3bc0209a
3ce4219b
3dcf1b46
bdb2617c
3e9a540e
3de1169b
3d872619
3e4e8697
bc38335d
be37ce77
3dc2921e
3e05db0a
3e63143d
3c89c5dc
bc637bff
3ca899f9
3e5e003b
bf1390df
bd78846b
3ea00f43
bec27889
3d09c118
bd5f337a
be05eb5f
be66a753
3d1f8d96
be89ffb8
3e10f550
bdb7c263
bd59d177
3e6fe5da
3e0e6306
3e2c6fb4
3e0e484f
3dfdeeba
bdf48189
3e5dbd64
3e816d9c
3e704aa8
bcd8b887
3de44ed0
3c24b731
3e306bf4
bf2bd41b
bdda419d
3e7d69fc
be7157e4
3e379307
3d9c84e8
3dd0e9e4
bd552d1d
3d94b742
bdea390c
3e29f394
be9f501b
3c67b629
3e4ba896
bd1e9f9d
3c5b4d2c
bea7c561
3d73ecb5
bdc04a94
3e1eb8d4
bcaaf5c6
3e4f85ff
3db2a9e2
3e20ed78
3e81887e
bd93a086
bf0c0ff1
3cfb6322
3e502082
bdf096c8
3e40ca7d
bcd9c025
3e497782
3cf360ad
bc8bd6c4
3e125bcd
bc101825
be27150e
bd8f0d90
3d7ec5d5
be2cf9aa
bc30bb76
bf19481a
be4ca166
3d8d6326
3ec4e6e4
bcd78456
3e889962
3e5cb447
3e9ac5e5
3e13546d
be40bd43
3aa8803d
3e34de71
3e0e8e85
3d1ceabb
3e73dc5a
bea2c11d
3d8a081b
be20503c
3cbc4f2b
3e4ff0cf
3d86e5af
bd598248
bde320ef
3e4694a8
be33acd6
bcdfe718
be87c7bf
bdbf3496
bd24f0ae
3e785201
3dd8229e
3e205fee
3da0a0ea
3d66e205
3d26cbc4
be0bac0c
3e0b7126
3e9e5547
3e16b0a3
3e00a8ca
3e0dd91c
be0c2d04
3da653a0
be4250a1
bd9665b9
3dd80616
3dc29552
3d3e7c28
bc2f321b
3e1c2272
be257bbd
bda8a4e4
3ccd0c08
bb9afc64
be1b4641
3e88fcd7
3e57c8c8
3e6156f3
3e07358a
bdcf90eb
be66cb25
bb7c150d
3dd00967
3d88ad91
3db02e9b
bdd5eaf3
bdedc8dc
be4ff94b
3d53fc16
bd293361
bdb6074f
3d183897
3d75748a
3e26bccd
3d9124b2
3e0d9a03
be47a368
3ccaaaa0
3ddcfd4a
3b7a71a4
be7656de
3dc81083
3d71d11c
3d24e51e
3e2f38ce
bc81e3b3
be50f4a5
bdba26f2
3dbda01c
3dbab62a
3d625a18
3db05c60
be257b7d
be895a84
3c991e0e
bd924f88
3d3ac773
bd075987
3cbd8781
3e51f00a
3dfa600d
bce02a56
bda171b8
3bb382a6
3dd51948
3d6ada60
be2fbe8c
3da8d45e
be559ec4
3e891441
3d337091
3dab9abe
be269dc9
be0ba33b
3dcfb7c0
3e2bf167
3e31d52f
3e1ce3fc
3d34489d
bdedab55
3e1f33d9
bc31e6b9
3d01c7ca
bd8ab341
3da82b6e
3e8de643
3dae8ca8
bd5d3093
bdda493b
bbdf9169
bcebd7be
bca31d25
be1ee40f
3e03f9cc
be6f1bd5
3d804158
bcbea431
bd1baa02
be4ae10a
3dcc8267
3c0ea4b2
bd05d3cc
3e2fce94
3e606108
3d16ca5f
bde33586
3d98e4f2
3d2bf654
3da220a7
3da557d8
bbfee841
3e2e3992
3df341b2
be1e546f
be54c8d7
bd613345
bdafae24
3a7c12f2
be3824e0
3e3b2377
be4016c5
3da6e705
3e3a5d54
be21bce1
be69e47b
bd4f781e
bda86953
3bac069d
3e54f992
3e8979eb
3e2ce9ea
3dd27b07
3d0631a1
3dacc716
3dca7537
bcca9bcd
3c41a8c6
3db3fc97
3e2a81fd
3d8a070f
beaba46c
bd908cc4
be0da107
3d38092d
3da1c1c9
3e1a0e17
3d10422d
bd3c6ca7
3e3ba7f5
bdb1bc16
be893e67
3dfa1df0
bd9e4888
bd853046
3e8f5514
3eccab3a
3dc171a0
3e90080f
be025b34
3d9d2b8e
3d922a1a
3dd7e0c3
bc932f09
3e5e5818
bd82205e
bd6a4b50
becc5a6d
be860c11
3cfb0762
3e84868c
bdd08e92
3e229de2
3df79708
3d695dea
3e911dc4
bea2194b
be1a09bb
3d581cc6
bd08b579
bda35f1e
3d82df90
3ea4eeb4
3e9c3ff0
3ed750ea
bc8ce7ce
3e4300b5
bcba760a
3d93a24c
3eae7620
3dbdeae0
3dc754e5
3ca32df5
bf3641cd
beb27349
bd41f2db
bd76725a
bdf18b63
3e8db555
be00b2ab
be0f2eb5
3eede8cf
be78405d
be0c521e
bba74ec3
3ccc77c9
3d8a821e
3e05a85d
bd85ac58
3eadc0e8
3ed1064d
bae314ef
3daca9b3
bd30ee15
be72abd3
3f07a40e
be90d10a
3e0cff86
3caacfa3
bf1158e4
3e2a7735
3e86d1d2
3dc17ba1
bc4e738d
3ded0eb4
be45d4c3
be476401
3e9570d1
bcf776c4
bde862f9
3e68725b
be865a14
be69fafc
3e75005a
bdffe134
bd7fb255
bcc23dea
be5da45c
3d9c3ebb
be37a386
3e9f301c
3db2a889
bedcc057
3d2e22d3
beabe586
be8166d6
3e9ceaa5
bd4168ca
3dea7797
3e778a38
3e6cf301
bed4ee3f
be0f734b
bd28a2d9
3d7233a6
3e9d05f0
3e34478a
be7a71e5
3d6b9c0c
bd271817
3e84924e
be6fbaae
bef6b447
bd324449
3d071683
bea040c1
3ee51f8b
be37c8a3
be3cb463
bea99d58
be9c5c42
3ca62849
3e8c1870
3d84b856
bc7b36c9
3da55d68
3e22e016
bec8f786
bec6d7b0
3dea165d
3dc10a07
3e9ea53b
3d68fe75
be2776fd
bcef95db
3e5de313
3d795e71
be4b3a9a
bccf53bb
be292e01
3ca121d5
be42fe5b
3e2fdfc5
beb7c00a
bd9f1ec3
be0d3283
be7a443d
bdf07ec1
bd98706e
be45646e
3dd2c515
3ec0b4c7
3e55f5cc
3e64e25e
3e51e30f
be0f377c
be66501a
3e940b44
be94facb
3cd24a4f
3d937412
bdec8c29
3d92dc07
3e562ffd
bc6f1620
3da637fc
bcf2c1b8
be3963a6
be5c43f9
bd2ff8e2
3b81eff0
3e2d443e
bd5cc867
bdb6047f
be21f17b
bd81121a
bcd44f58
3e6b5cf7
bdcec5e2
3e11fb4f
bdbfe4ad
3e5cc3df
3dba342a
3dfc822d
bd819dd9
be57b5d9
3e261e47
3dbf9c34
3e45ad51
bdf6ced8
bd4dd99a
3d2a5965
be1e096f
3e053f43
3dffc251
3c86a267
bc8d486f
3cfc7edc
3d942716
3e247cad
bda43bda
3d770786
3de7b5bc
bd835b60
3dc7ace6
3e0ca39b
3d3ff879
bc102801
3e192bd8
bd1ad664
3d83e857
3e4a8551
bcdd74bc
3e865da7
3e933ec4
be08b042
3c0865c9
beb48651
be765aec
3e295605
3e8b1fbd
bde52afc
be8c1228
bed63300
be24f6a4
bd9b8891
bdf999c0
3e801dc8
3e755c3a
3dd70a8d
3d13bc6e
3e1fdda0
3eb6a8fb
bded0647
be80b17b
be4fb6ab
bdcfc582
3e2c8817
3d677a7a
bda4d996
3dfa3537
bd06bedb
3dbbc628
bd46eeca
3e958a3f
3e14cf94
3ddf5261
3dd2fc9f
3d9a9d0a
be3e08ae
bd68271f
3e6fc2a5
bd63c35c
bdf212fb
3d923c92
bd114c30
3d94e2ef
3ccee36c
3e3cc37c
3d184b05
3cf9fead
3dc5cf0d
3d8769db
bca31498
3d915bd6
bdf05285
3eaf8c88
be8011ed
3e44b8c0
3c616a0f
3e1a6652
be3ba765
3e9853eb
bd5c832c
3eb56698
be43e610
be88c738
be2344da
be2128cb
bde8ebf1
bd86b6ca
be14a985
3d8fe01e
bdcde252
3df67a52
3d8ad540
be88c838
3cce2820
3d447f22
be02afc4
3e6cf44c
3cc9a760
3e0fc8d9
bd38764e
3dbce871
3ce716d8
bbace509
bde60f9b
3e20287e
3e28466f
3e261ad4
3ccb9d89
be05bb93
bd5f790a
be7220b0
bd2cbdcc
bd8bbb97
bd91edc3
3dee966e
bd6839c7
be0ff073
3daea5ce
bdf6f635
3e0e1c33
3e3b9b6e
be6412e2
3e245e8d
3e1a65a6
3e44cb8b
3d540abe
3e8c497f
3c59e98a
bd5a9c8e
3c834e12
bd8bca7e
3e7b4950
3daaffb6
bd67f6f0
bd69bd9e
bddfed90
bdc18025
3d217b67
bd020586
be326f6e
3e322be7
3e2e0d56
3ce8d242
bdb2daca
bb710100
bd849516
3d2b3f6f
be7c195c
bd85c100
3dbaabd2
3dd2b6c0
bcae0811
3e6131d4
3c69039c
bc889d97
bc1839ff
bca057a0
3dd3e472
3e6347da
be211f8c
3e0a640d
3daa4ca7
be4533dc
3dba9933
bde6fc88
be786315
3e5757dc
3e0b9e3b
3e0a1d6f
3cb22535
bd078fb6
3ca0e0b8
3d88c4ff
bea23a2a
bd5df99d
3d805df3
3e3f6ef4
bd530774
3d752355
bb43df6f
3db45cfd
3d08adea
bb5561e0
3e122a66
3e621974
3d058424
3e2f3cf8
bd17cf0e
3db257ba
3e2d7a80
bcae65d3
bd7d56e3
3d40445d
3d3bddd3
3e085b2d
3c649fa1
bcf8e94e
3d2408dd
3d412363
bed15e74
bcd50c57
3e1c6e3f
3e8b6b7e
ba84ccb2
3e341a8d
3d20eb4b
bd1f2213
3cc381b3
be420733
3d7ba5f4
3e11b23c
3c5eda63
3e815756
3d741867
3e43ec84
3e27b633
bd1e5a3e
be9927e6
3e22ee31
3d99086a
3d0ac483
3d715d7f
bc714a0a
3d4ed55b
3e000ee6
bed48c8e
bd749a05
3e973412
3d033517
bd9dd804
3e114408
bdc57dc9
3d19072c
39f7cf1a
bdf6502e
3b357c9c
3e8dc45c
bdef91ce
3ea3408b
3e2cf379
3ea49658
3dd179d7
bc4e2971
be22bff2
bbdc80b3
3e0ba4e6
3e5bb360
be154c0c
3d19833b
3da45657
3e075ca8
beb9e48b
3cf84af4
3e93ada8
be2f28a4
be15f648
bc792764
bc6b6429
bde8aaef
bd589524
bdec5108
3d276b94
3a6c5b29
bdbe6ca8
3e8ba9cf
3dfd3914
3e13d570
3d0a368d
bcb298fe
be0ff3a9
bae0baf2
bc77e3d9
3e1d5669
be0539e2
bd91cea6
bdbd7ca8
3e68d102
be447420
3b4fed48
3edeafd1
be38c75a
3dc721bc
bd3a503b
3e02da82
be173d4d
bdcd3df7
be40b95c
3e2c1779
bdb33ba5
be6c34b4
3ea20f32
3e0b8dcc
3e0a8ef8
be0f4026
bdb17f37
3dde1287
bd41ccf3
3d420e41
3e2910b6
bd8cf9d4
3d22a175
3deab3f7
3d1b739d
be92d1ef
3bc1bf41
3e98f23f
be3af13e
3dd80b7f
bdee20e8
3e9728b4
bc859cb1
3d90e4d8
bd155cf4
3e168037
be56ee59
3c14da5a
3e1ed048
bd51771a
3e04c5be
bee83ca9
be104a95
3dcea2f0
3e0cf063
be053818
3debe26b
3dd5ed4b
3e1a7fa3
3d9177ec
3d61edb2
3c150cd9
3d4eb3e5
3e315ba5
bd38876c
3e1a170c
3d808540
3eac9ef2
bdd62977
3d9bb1e3
3e2b7edd
bd90e439
bdf9a7e5
3c9ab858
3d513134
bdd45345
3db9fd50
bf16d8d3
bd96fdb1
3e4d8356
3e73ffcc
bde6275d
3e33cafc
3e65113c
3e6ddd82
3cccdff0
3beeb271
3e1f2581
3c708ab0
3e01afa4
bdd50643
3e96b1e7
bc0368a0
3e060fb6
be5b1957
bd7370fc
3da69628
3dc25894
bdd87c74
bdacb28e
3e97dad2
be1caa7f
bd60aca7
be47de64
be2adb6c
3dbc54b0
3e66dfac
3e229380
3da17a6f
3e8605de
3dc8c228
be615a70
3d73c01f
3d2355f4
bd5fcdec
3e898599
be2a1084
3dd0a324
be605672
3e260003
bea36e25
bd084fa7
3e0e8de7
3dba8267
ba3aa6fe
3be8d6b3
3e36dd1b
bd6578e3
bdfd3347
3d419b80
bd684eb2
bd87c215
3e8b5533
3e8c3c31
3e200b3a
3e49ceb4
bb25cff9
bd4260cf
3cea7fa0
3dd9a44c
3db10a9b
3ddac769
be480ac6
3ce8c831
bdc5e99e
3e2b9022
be0dc26a
bc384fa6
bce93c00
3d9ad76d
3e4e2ce8
3d8580a9
3e13766b
bdff7532
bce872e6
3d8207f0
bd2877e1
bd7b33e6
3ddc9ab6
3c090806
3e6c1445
3d86b992
bc13e383
be0e3d33
3c84a64a
3e223f53
3e3fcaab
3dc9aac6
bda5a7ef
bd95e0bf
bd2b1018
3d3bde25
bd84c3e3
3e232382
3a26f569
3cb0180c
3e4204fb
3cf13f46
3cd40ab3
bdf346c9
bd8b3e8a
be20f7fb
3d2cc401
bdfd2f26
3d70667e
bd617296
3e38b557
bd264183
3c8b9924
be7b6f70
3dbe5777
3dde85f5
3e250f8c
3dd5c3e7
3c0e072c
3d0de95e
be306f2f
3d8cef65
3d2ac1cb
3dc342cb
bd3b203d
3bfdb866
3e9087ce
3dd976d2
3c924b7c
3d4d80da
bd68fb61
be554639
bca0014d
bdbbfb35
3d133f7e
bd94fc0f
3e009ed6
3df87d8c
3d539688
be793a16
3df998be
bcad9823
3e25aced
3db3a6a1
bd2a3603
3d173534
be1331c4
bc773235
3ddb1957
3d957dee
3de87b1c
bdd293cc
3df84da1
bd7be5f1
bd171ec3
3ce03e3c
bb63cbe4
bd8d1051
3d291375
bd55abe0
3de2f6a6
3cba6d90
3e19bcfb
3c9745b9
3d7d837f
bee73d60
3de6641a
bdddab8f
3cf81042
3e03f852
3e41d8a9
3cf08ffd
3df48843
bac2e416
3d94b4ec
3da9a465
bc491d5e
bdebc8a2
3d899071
3dbb632f
3d95ada4
bd8b3c64
bc13803f
be6b285c
3c465df7
bcf74fe5
3de0478b
3e15a3e7
3dfe7d7a
3d85e398
3bc582b6
bedd995e
3da4665c
3d36b31f
3e0a1065
3e1aaf6a
3e30b14b
3e176cba
3e3e4bc5
bc676ca1
3e77b3ba
3d46277f
bd36f469
3e83c714
3e4026f4
3d8f121b
3e2cdbb3
bde5e42c
be282c20
be3ccd2d
3de51f99
bde81eab
bc733011
bcec9f58
bcf6c487
3e80ed57
be5cc0f0
bec68494
3e0484f8
bdef49d8
bdd54895
3eb5d44b
3e083a7d
3e9730aa
3eb3ec5b
bdb03f23
3ca2bbd9
bdb75dab
bd9ea094
3e23f729
3c99df66
3e462bbe
bda5943d
be9ab6c9
be32f2eb
be2b4c70
bc360912
3e1a5d78
3e9c0db1
bd0d66cb
be4abd78
3dd82489
be922a34
bf0d8d05
3c26d9ff
3ceb60ff
be2f9527
3e8f0f67
bd4e0e04
3d9a0cc2
3e95a8f4
bc35faf9
3e089af3
3dba7212
ba9bed92
3d0890c6
beab7aa2
3e66f991
be9dde2e
be714586
3e4dd5d4
bcc12b2f
3e529eb7
3e26d387
3e220f8d
bdf76e44
bdd9f1ea
3c93a0c7
bdd0ff37
be09c3ff
bda1c911
bdf39eb8
be1ebc4a
3cf7761b
bded7f93
bdae714a
bc7aa0f0
3ce8bbbd
3d06861b
3c1c2644
3ddd6521
3b7c63e5
be6fb209
be41825d
be6bd043
be5c37b3
3ed734ac
3e011b52
3e72ba3b
3e668ca4
3c13fa8e
bea0d824
bdd732e4
3d47ba22
bdf9eebd
3db50c8a
3e04c6cc
be9abb57
bda1c66e
3c934c99
3cb79dcb
bc993cfd
be9882f4
3ee6f4f4
ba4074a7
be98b249
3e6eb793
bb2888f5
beae5432
bde31877
beaedbdf
be0f68af
3ead3cb4
bd906061
3de9ae8e
3e9867d3
bc3d69c4
bed36411
be8b851d
bbdc54e7
be25e545
3e5b49b0
3e9e7178
bda8371d
bd735baf
3e58024f
be612330
3e8c0eea
bdd399ca
3e9c7ed6
3eb0b832
3a806b67
3ce0ea9f
3ba57c3c
bddf2891
3e8ec802
bdd276aa
3dd48041
3d528541
bcc3c053
3db6717d
3e2e53d9
be9f453c
be1a9cf5
be55a22f
be13a73e
be8dad3f
bca314ab
3ae9ec14
bcbffff3
bd96c445
3df4c471
bda0273b
3cd5a08d
3c818fe9
bda24aa2
3d35e785
be28e152
3c857196
be0cbefc
be374283
3dbaf2a7
bd2dbd14
3e2abfca
bde19107
3de44556
bd76f686
3cdd6ad0
3d41615a
bd21b64d
bdfb1831
bc86be63
3d88ef1a
bb029f20
3db3e666
bdd5e62f
bd73024a
3e06919b
3de7bbfb
3e232675
3dd1d535
3d369012
bdb8177f
3d9a763b
3e126aa3
be16dc5d
bdc0785c
3e4d1f14
bd51ac8e
bd75c7f7
3d0f9f3b
bdf80e2f
39405dbc
be999696
3e3427a4
3d8ad65a
3dd7b219
3cb44bdd
3e8f78a8
bd8c6cec
be03d806
bd2adb60
bbdd2297
3e518049
3e9ee679
3d2e0daa
3ca3349a
be3e5113
be0dcb49
3e511793
3ea27ff4
be19e45a
be217cd0
3e00bac7
be5487c0
bd6dea28
be283beb
3e7b20d4
3dd3ed18
bd68c27a
3d81fbbb
3da12ec0
3e321990
3cd297a1
be072f07
bddc161b
be51aed0
3dbfc383
3e5a2cee
3e24c5d5
3e14c268
3c2475aa
be338078
3d48045f
3e16f61d
bcf9f756
3e3d78bb
bd86181b
bd1a556d
3e1c363d
be13bd83
3e55a853
bce733e8
be2368f3
bd9f4798
3d0ba623
3e305081
bd6dda3d
3e321110
be1814be
bd9a0537
3df0affd
3d2f6d13
bdc4558a
3dad6cda
bcfa27dd
3e489a97
be9f16a7
3d990658
3e01b31d
3e0df6dd
be247e91
3e0ce9c5
3e2c39e1
3e5d92d2
bec5ed06
bda3465c
3de3fb63
3d93da98
3cac2eba
3c5e6a0d
3e1689ce
be0d4e2a
3dbccd71
3e554520
bd3a9a26
be90d8c5
3e417f4a
3e095b51
be166547
3e0a8a19
3e377dd4
3e096512
be896f3a
3eb1a484
be1ca0b6
bb3ebc48
bc9cccfa
3d559bd9
3e81eaa3
3d232444
be146221
be14a613
bd886ad0
3da4be45
3e310453
3e21b03b
bd204127
bd6b86d7
3db85ae4
3db0afa2
bc7a773d
be57bcf2
3eab3808
3e1a14bd
beee4296
3e45b0a7
3e1d47c9
3e9370c7
be6c0fd9
3ebd7999
3d9cbd44
3d7f19ed
3da81d18
3de9d897
3e83e90b
3e3703ac
be3587e4
be2aba54
bde8c0f9
3de3dc7f
3d472ff0
bcdb0140
bd941a8e
3d873748
bd48c096
be193581
3ce3da7a
bd9efcc2
bd8c102f
3d5537a3
bea4f193
3d19e991
3ba9b2fd
3e5c1747
be9ec893
3e2243c7
bdb49f00
3dbcce67
3d16ac21
3d901f93
3dc19828
3e31f54d
be4c7cd4
3d9f913d
3e0937ad
3e3d3a2b
3e23ebb3
3cce1480
bbeb41b0
3d1baa2b
3d95ded2
bbdfefa1
3df7065a
bdf18f33
bd6c33c1
3aaaa6ce
beaafa01
bdffb240
3e43c766
3e1de03f
be188563
3d4e7533
be18479f
3dde7c3e
bb67dddf
3c75d6d0
3b9ed5be
3e2602d5
bcd4f678
3e50cf5f
3d2cd834
3eb7d55b
3d38901e
bd6a7e02
bdab5fb1
3d228d15
3d8b8a68
3da9de14
3d7332a7
3de62048
bcd9a017
3de8e985
beaf5931
be30ebcd
3e4aebdb
3e2fccff
be1284e5
3d83a22a
bda44b1b
3cd52d6d
bd95579d
be2bf9bf
bda4d536
3dba7eee
3cda34cc
3e33f8d9
3ce83115
3ebdfbfa
3d59d059
bd8fd4e7
bdb08ac8
3d753e1b
3e4259b8
3d8b2832
bd2da2d4
3d2d6d13
bc32408f
3cdb0889
be2f2a50
bd30889e
3df62013
bde4bcd4
bdca72ca
3daf8e22
be32e4a3
3d3d3df3
bcb4a9c5
bd3b9dd2
3db6ce1f
3e37e2fd
be01c49b
3e7b9bda
3e20566e
3e4a8a26
3bfb34c7
3da96334
bdaf1e6b
bd76d732
3dad366b
3d4d5229
be111467
3a02499c
3d72885d
3dd7c858
bdf1cccc
bd7bfecc
3e86f1e6
be814e77
3cb45fea
3b1a9a0d
3be4bdad
3db4ffb8
3d8070ab
be57bad5
3e92481c
3de273e7
be7d6f9c
3ea076cc
3c986d6b
3e26f112
bcd53415
3d55caef
3da47d90
be713202
3ce6bad8
3e2550b1
be29ab18
3dbed30a
3cb40072
3e3bb418
bd60f147
3d795da4
3ea0a5c0
be57e9e1
3d656a90
bd9b6cf0
3deddc5e
3c7f4783
3e25af08
be3928d5
3df3911c
be06c659
be883bbf
3e6a74b3
3c952da5
3dcb9ed4
be6767df
3c758f37
3d363498
bb2cd1bb
be033e0a
3e2d4a83
be24bb21
3e45e2be
3d0fe553
3e1c301c
bda52114
3d19f8bc
3d37ec85
be285f43
3de0cc33
3de3184e
3e8ec080
bd5cd1aa
3e6cab10
bd380929
3e36ca41
be2eb28a
3d85e2e7
3e6d19bd
bd383eed
3d31d8e4
bf13047a
bda1fbfd
3dfd21ea
3bc450b5
bdf1919a
3de839b3
3dd40b0d
3e735792
3dbe89d5
3b460a37
3da008ab
bd9b66db
3e1529f8
be0a18e7
3e1f660a
bca569b3
3e8564c6
be84b997
3e2247fd
3c8037b9
bd74bf3b
be3f568c
3dc44c0e
3c0d9127
bc2097a8
3e23baed
be86e5d9
bd945ec2
3e5d4809
3e67930a
3d37861d
3e5db5a1
3e94f2f6
3e1cb69f
bd360b8b
3de6f796
bd427a60
3d2a0a61
3e032387
be603749
3dd8c4d7
bd1a8573
3e47bf82
be772c3f
3d85b260
3db1e7db
bd0a3b2a
bd8b189e
bc5d9880
3de8c7cb
bd3718d9
3d68419f
bdbacedc
bdf76f48
3e4ac7d1
3e83c8bd
3e57b7e9
3e3e0731
3e47cc55
3e000dfa
bdb39bf3
3d053ff7
3d6578c4
bdde31a5
3e9a4373
be525292
3ca1203e
bdf5241f
3e21223e
be50431e
be1b0cb8
3ddd7035
3e2fdf67
3df86217
bde2eb6c
3e34db7f
3b2a520e
3cbd5169
bdb6223c
bdf8a4e1
3db91e4e
3df81b41
3e4abea0
3e038003
3e3ef1cb
bdc7a220
bd045af3
bc8c984a
3dc91e80
3d996358
3e982b92
bcf97092
bd82654a
bd900611
3e06f3bd
be740dbc
3e029e36
3d832b23
3e22e3fc
3e1fb192
bd8cfd28
3d9d5204
be1d37f9
3c9700ca
3d9a08ac
3d93ce25
be18eb3f
3d891085
3ce15af4
3e3757a9
3d876d29
bdfe24cf
be1f1abc
3e4c4116
3e2faf97
bc8f1b8d
3e78f1e2
3cf64864
bd910432
bba66418
3d5e57b0
bd50f1d3
3dc5cf8f
bd269ec5
bd86d065
3e511a61
3dde5384
bc539574
bd065672
bd3427c0
bd911bd8
3e11e5cf
3c544239
bb33bade
bd8a3ccd
3e5e1d7d
bde5bd64
3dc77152
be1b0f39
3e2b13e7
3d8fcdaf
3c4fdf85
3e059908
bca62751
bcedfdf5
3ce55619
bda9d090
bd961dd6
3e0023fb
3c925d4d
bdb129a1
3e12b7b8
bdb13d5e
bc075a50
3c764e97
bd22e6d0
bcce3878
3e1848ff
3cb5942b
3dc37fa8
3d9b3bac
3e95f59d
3c636ed4
bc98c937
be74713c
3e8ce9d8
3dbee95d
3d94498f
3da3b9ee
3d5d50ff
be087759
3dbb9ec7
be19e9b1
3c855c73
3d1db14b
3db5e07d
bc849d14
3e4493ce
3c974f98
3d637cc0
3dbce181
3c94b94a
be1dc557
3e2daee4
bc68f5be
3dec146c
3dc3f4f5
3d179382
3ce18b36
3d6becc6
be1c68a2
3c6b083f
bd669c44
3d612ae2
3d180982
bd17ed11
be2285a9
3e32f254
bd282ea8
3d15b092
3e133b48
3dda683f
bb8980b5
3daa2e57
3dd7ffac
bdaae526
3c0c9851
3dd1a4ce
be13a286
3e299505
be1e63a2
bd8f2656
3eb5bff9
bcf29b69
bdc18c09
3d7cb451
bdcfb63b
3cc5a7ec
3e25a7be
3e0ce25e
3e19f699
3dd9bfb1
bddc5a5b
3daf7a1f
bdb04255
3e3f5862
bc224485
3d664ded
3da3d67a
bc4f198a
3dffbf41
bce1e0e6
3da80ec1
3ced85eb
be5ccd32
3d6312a9
3df6f922
3c488a3a
3e1b21c3
bd0dcf92
be0b8e28
bd84d940
be2f5e79
bcaaaf56
3cf95aa5
bdd45993
3e97c093
3ea6963b
bd760d7d
3e5710ce
bd857cc2
3d6085f6
bd25f42b
3d172f85
3dd2765c
be011056
3da49c37
be0a75b6
bcc3822b
bd8c4204
bd96f863
3dd4eb0c
3dd4058a
3d1e9ed1
3d463063
3db5acf1
be40375c
bda24144
be6bfcc2
3d6386ee
bcb62e8c
be0ae178
3e54796c
3e5db6fc
bde6b133
3e396ec0
be4fb5f5
bdb49ba1
3e3ecabd
3d73ed8f
3ca79137
be5ec462
3e0ac11e
be1ce307
3e190f36
bd25ff40
bca40b21
3dcb4111
3d5881c2
3d920736
be210879
be3a01e7
bdcacf8b
3c83845e
be17d377
be2b5bb0
be55013f
bdcb4094
3d97f2e5
be2452d5
bb3ee603
3d81fc57
3e99b917
3bd82d51
3e35ea5c
be22537b
3e0fe00b
bcc59bb7
bcbc4d01
bdf2d797
bd96b867
3ed270ec
bd9f3e0d
3d86627d
3dd2bf52
be1db7a5
be9e1fd7
bd27211f
3de20bfc
bd13c1d4
be42b252
3e8285d8
be8a3aa5
be0e4b8a
3e59ebfd
be01e398
3e87a149
bda72b13
3f0d070b
3e67071e
3e032432
3e9e4d63
3c20e671
be88dc85
3d5922f4
bef61e3c
bdfac51e
3e74bf27
bd027ec2
3e8e691b
3eebe5b9
bebc8d4e
bed81f4b
bf065551
be5940ca
befc660a
bd2fc6e8
3de86d6c
3d7a3289
be04893f
3eb003e6
be7036d5
3e08e05f
bdcb215d
3e7321b4
3e341dfa
3bf2a128
3e43572c
3df1d9bb
bd806565
3e055273
be0a5d7e
3acc9bd0
3e4efb50
3aab4a92
3e66fafe
3ea996c1
be4d7432
be1a5bc3
be80efe1
be3b2d62
be95b9bf
3cd582a0
bcc82441
3cd91c5c
3d6b6422
3e0b9a03
3df43f9c
3c2ebf99
bd55245d
bd33dccc
bce39080
bdc0dd1b
3beab882
bdde2676
bd8230c3
3db19c7a
bd3db6a2
3dd01c28
bd33abe5
3d32ff92
bd39e7f0
3dd403f1
3c8883ea
bd97f4d2
bdc023f2
bde07182
3da0c674
3ce3d20a
3d6ea530
be3c420f
bd2e6ee0
3d877db1
bdab559c
3e5e0450
3cfa0a4c
3e0118f7
bd8e0c59
3e0fa5fa
3ba6986f
be0c8527
be815a01
3e5b9dd8
bc9fb31d
bdfc95cb
3dd7958c
be3d4f81
be137276
bde58d3b
3dbb3209
3d09463e
3c572cf4
bdaddf3b
3dddc54d
bd7a5f52
be540d65
bcf753b4
bdb74ee1
3cab0068
3e885c56
3e8f4e36
3de31ae2
3e828cac
be9d7f8e
be117239
be9d38c2
3e6c1a7b
3c2e75fe
bc26905c
3e2e56d9
be13433a
3e1667a0
3e5e98c2
3c9a3ede
be058031
3cfaa932
3dfcaec5
bce25864
bc588d69
3cfd23f7
be7711b4
3d4dbac7
bca85cac
3d98d63c
3ea4836e
3dce9fb6
3e164873
be177a84
3e2d4439
be0270a5
be0f89c9
be14c4a3
3e27975f
bd3ddb99
3c15a29f
3da3f530
bd0e33ba
3e8114f6
3e2d87dc
3cf4367e
3dee5d8b
3dc6d82e
3a1b5258
bce1ebad
bd845254
be2a6b8e
3e08659f
3ec27163
be52f102
bdf4d31e
bdd6a942
3d84be99
beba4e31
3ca8b686
3d821c76
bd3a19ec
3d3121b6
3d89cb9d
3d9d14ac
bd361a2b
be4ef7c8
be430076
3d1ee80c
3e2c1699
3c70a177
bdda8fa1
3e51354b
3c6dec08
be285345
3e680290
bcba4f13
be255364
3eae4344
3d532552
bec03def
3cb9897e
bc40dedb
3d91ab3e
bea4c887
3ed48df3
3d25d412
bb8bd40e
bd28ac4a
3de11574
3e2b2631
bdb100fd
bda12c36
be531a5d
3dd92eaa
3e730986
3d7c3be0
3df6a53e
3dca37f4
bd8fb507
be2dde87
be4e2259
3cad1a21
be48b8c8
3e43dacd
bd45bdbf
bebe2194
3e47e696
3de9efae
3e4668fc
be46dde7
3ddc747e
3dd94e2e
bdcb28e2
bd8b5030
3e1a4c25
3d9b0021
bcd5dc76
3ccf04a4
bdde44ce
3df69482
3e25ba8d
3db65bca
bd8ccf84
3dcd4298
3e497939
3dc05553
be806646
bc02654c
bdecf072
3df6690b
3e1d41c3
bec5312a
bc8e869a
3db7a518
3e8802a7
be938d82
3eadbe40
be06e674
3d123bf5
3e1ac0b0
bde5bc3d
3e3e98a8
