B16B00B5
A2345678
9ABCDEF0
A5A5A5A5
5A5A5A5A
FFFFFFFF
00000001
87654321
CAFEBABE
DEADBEAF
B16B00B5
A2345678
9ABCDEF0
A5A5A5A5
5A5A5A5A
FFFFFFFF
00000001
87654321
CAFEBABE
DEADBEAF
B16B00B5
A2345678
9ABCDEF0
A5A5A5A5
5A5A5A5A
FFFFFFFF
00000001
87654321
CAFEBABE
DEADBEAF
B16B00B5
A2345678
9ABCDEF0
A5A5A5A5
5A5A5A5A
FFFFFFFF
00000001
87654321
CAFEBABE
DEADBEAF
B16B00B5
A2345678
9ABCDEF0
A5A5A5A5
5A5A5A5A
FFFFFFFF
00000001
87654321
CAFEBABE
DEADBEAF
B16B00B5
A2345678
9ABCDEF0
A5A5A5A5
5A5A5A5A
FFFFFFFF
00000001
87654321
CAFEBABE
DEADBEAF
B16B00B5
A2345678
9ABCDEF0
A5A5A5A5
5A5A5A5A
FFFFFFFF
00000001
87654321
CAFEBABE
DEADBEAF
B16B00B5
A2345678
9ABCDEF0
A5A5A5A5
5A5A5A5A
FFFFFFFF
00000001
87654321
CAFEBABE
DEADBEAF
B16B00B5
A2345678
9ABCDEF0
A5A5A5A5
5A5A5A5A
FFFFFFFF
00000001
87654321
CAFEBABE
DEADBEAF
B16B00B5
A2345678
9ABCDEF0
A5A5A5A5
5A5A5A5A
FFFFFFFF
00000001
87654321
CAFEBABE
DEADBEAF
B16B00B5
A2345678
9ABCDEF0
A5A5A5A5
5A5A5A5A
FFFFFFFF
00000001
87654321
CAFEBABE
DEADBEAF
B16B00B5
A2345678
9ABCDEF0
A5A5A5A5
5A5A5A5A
FFFFFFFF
00000001
87654321
CAFEBABE
DEADBEAF
B16B00B5
A2345678
9ABCDEF0
A5A5A5A5
5A5A5A5A
FFFFFFFF
00000001
87654321
CAFEBABE
DEADBEAF
B16B00B5
A2345678
9ABCDEF0
A5A5A5A5
5A5A5A5A
FFFFFFFF
00000001
87654321
CAFEBABE
DEADBEAF
B16B00B5
A2345678
9ABCDEF0
A5A5A5A5
5A5A5A5A
FFFFFFFF
00000001
87654321
CAFEBABE
DEADBEAF
B16B00B5
A2345678
9ABCDEF0
A5A5A5A5
5A5A5A5A
FFFFFFFF
00000001
87654321
CAFEBABE
DEADBEAF
B16B00B5
A2345678
9ABCDEF0
A5A5A5A5
5A5A5A5A
FFFFFFFF
00000001
87654321
CAFEBABE
DEADBEAF
B16B00B5
A2345678
9ABCDEF0
A5A5A5A5
5A5A5A5A
FFFFFFFF
00000001
87654321
CAFEBABE
DEADBEAF
B16B00B5
A2345678
9ABCDEF0
A5A5A5A5
5A5A5A5A
FFFFFFFF
00000001
87654321
CAFEBABE
DEADBEAF
B16B00B5
A2345678
9ABCDEF0
A5A5A5A5
5A5A5A5A
FFFFFFFF
00000001
87654321
CAFEBABE
DEADBEAF
B16B00B5
A2345678
9ABCDEF0
A5A5A5A5
5A5A5A5A
FFFFFFFF
00000001
87654321
CAFEBABE
DEADBEAF
B16B00B5
A2345678
9ABCDEF0
A5A5A5A5
5A5A5A5A
FFFFFFFF
00000001
87654321
CAFEBABE
DEADBEAF
B16B00B5
A2345678
9ABCDEF0
A5A5A5A5
5A5A5A5A
FFFFFFFF
00000001
87654321
CAFEBABE
DEADBEAF
B16B00B5
A2345678
9ABCDEF0
A5A5A5A5
5A5A5A5A
FFFFFFFF
00000001
87654321
CAFEBABE
DEADBEAF
B16B00B5
A2345678
9ABCDEF0
A5A5A5A5
5A5A5A5A
FFFFFFFF
00000001
87654321
CAFEBABE
DEADBEAF
B16B00B5
A2345678
9ABCDEF0
A5A5A5A5
5A5A5A5A
FFFFFFFF
00000001
87654321
CAFEBABE
DEADBEAF
B16B00B5
A2345678
9ABCDEF0
A5A5A5A5
5A5A5A5A
FFFFFFFF
00000001
87654321
CAFEBABE
DEADBEAF
B16B00B5
A2345678
9ABCDEF0
A5A5A5A5
5A5A5A5A
FFFFFFFF
00000001
87654321
CAFEBABE
DEADBEAF
B16B00B5
A2345678
9ABCDEF0
A5A5A5A5
5A5A5A5A
FFFFFFFF
00000001
87654321
CAFEBABE
DEADBEAF
B16B00B5
A2345678
9ABCDEF0
A5A5A5A5
5A5A5A5A
FFFFFFFF
00000001
87654321
CAFEBABE
DEADBEAF
B16B00B5
A2345678
9ABCDEF0
A5A5A5A5
5A5A5A5A
FFFFFFFF
00000001
87654321
CAFEBABE
DEADBEAF
B16B00B5
A2345678
9ABCDEF0
A5A5A5A5
5A5A5A5A
FFFFFFFF
00000001
87654321
CAFEBABE
DEADBEAF
B16B00B5
A2345678
9ABCDEF0
A5A5A5A5
5A5A5A5A
FFFFFFFF
00000001
87654321
CAFEBABE
DEADBEAF
B16B00B5
A2345678
9ABCDEF0
A5A5A5A5
5A5A5A5A
FFFFFFFF
00000001
87654321
CAFEBABE
DEADBEAF
B16B00B5
A2345678
9ABCDEF0
A5A5A5A5
5A5A5A5A
FFFFFFFF
00000001
87654321
CAFEBABE
DEADBEAF
B16B00B5
A2345678
9ABCDEF0
A5A5A5A5
5A5A5A5A
FFFFFFFF
00000001
87654321
CAFEBABE
DEADBEAF
B16B00B5
A2345678
9ABCDEF0
A5A5A5A5
5A5A5A5A
FFFFFFFF
00000001
87654321
CAFEBABE
DEADBEAF
B16B00B5
A2345678
9ABCDEF0
A5A5A5A5
5A5A5A5A
FFFFFFFF
00000001
87654321
CAFEBABE
DEADBEAF
B16B00B5
A2345678
9ABCDEF0
A5A5A5A5
5A5A5A5A
FFFFFFFF
00000001
87654321
CAFEBABE
DEADBEAF
B16B00B5
A2345678
9ABCDEF0
A5A5A5A5
5A5A5A5A
FFFFFFFF
00000001
87654321
CAFEBABE
DEADBEAF
B16B00B5
A2345678
9ABCDEF0
A5A5A5A5
5A5A5A5A
FFFFFFFF
00000001
87654321
CAFEBABE
DEADBEAF
B16B00B5
A2345678
9ABCDEF0
A5A5A5A5
5A5A5A5A
FFFFFFFF
00000001
87654321
CAFEBABE
DEADBEAF
B16B00B5
A2345678
9ABCDEF0
A5A5A5A5
5A5A5A5A
FFFFFFFF
00000001
87654321
CAFEBABE
DEADBEAF
B16B00B5
A2345678
9ABCDEF0
A5A5A5A5
5A5A5A5A
FFFFFFFF
00000001
87654321
CAFEBABE
DEADBEAF
B16B00B5
A2345678
9ABCDEF0
A5A5A5A5
5A5A5A5A
FFFFFFFF
00000001
87654321
CAFEBABE
DEADBEAF
B16B00B5
A2345678
9ABCDEF0
A5A5A5A5
5A5A5A5A
FFFFFFFF
00000001
87654321
CAFEBABE
DEADBEAF
B16B00B5
A2345678
9ABCDEF0
A5A5A5A5
5A5A5A5A
FFFFFFFF
00000001
87654321
CAFEBABE
DEADBEAF
B16B00B5
A2345678
9ABCDEF0
A5A5A5A5
5A5A5A5A
FFFFFFFF
00000001
87654321
CAFEBABE
DEADBEAF
B16B00B5
A2345678
9ABCDEF0
A5A5A5A5
5A5A5A5A
FFFFFFFF
00000001
87654321
CAFEBABE
DEADBEAF
B16B00B5
A2345678
9ABCDEF0
A5A5A5A5
5A5A5A5A
FFFFFFFF
00000001
87654321
CAFEBABE
DEADBEAF
B16B00B5
A2345678
9ABCDEF0
A5A5A5A5
5A5A5A5A
FFFFFFFF
00000001
87654321
CAFEBABE
DEADBEAF
B16B00B5
A2345678
9ABCDEF0
A5A5A5A5
5A5A5A5A
FFFFFFFF
00000001
87654321
CAFEBABE
DEADBEAF
B16B00B5
A2345678
9ABCDEF0
A5A5A5A5
5A5A5A5A
FFFFFFFF
00000001
87654321
CAFEBABE
DEADBEAF
B16B00B5
A2345678
9ABCDEF0
A5A5A5A5
5A5A5A5A
FFFFFFFF
00000001
87654321
CAFEBABE
DEADBEAF
B16B00B5
A2345678
9ABCDEF0
A5A5A5A5
5A5A5A5A
FFFFFFFF
00000001
87654321
CAFEBABE
DEADBEAF
B16B00B5
A2345678
9ABCDEF0
A5A5A5A5
5A5A5A5A
FFFFFFFF
00000001
87654321
CAFEBABE
DEADBEAF
B16B00B5
A2345678
9ABCDEF0
A5A5A5A5
5A5A5A5A
FFFFFFFF
00000001
87654321
CAFEBABE
DEADBEAF
B16B00B5
A2345678
9ABCDEF0
A5A5A5A5
5A5A5A5A
FFFFFFFF
00000001
87654321
CAFEBABE
DEADBEAF
B16B00B5
A2345678
9ABCDEF0
A5A5A5A5
5A5A5A5A
FFFFFFFF
00000001
87654321
CAFEBABE
DEADBEAF
B16B00B5
A2345678
9ABCDEF0
A5A5A5A5
5A5A5A5A
FFFFFFFF
00000001
87654321
CAFEBABE
DEADBEAF
B16B00B5
A2345678
9ABCDEF0
A5A5A5A5
5A5A5A5A
FFFFFFFF
00000001
87654321
CAFEBABE
DEADBEAF
B16B00B5
A2345678
9ABCDEF0
A5A5A5A5
5A5A5A5A
FFFFFFFF
00000001
87654321
CAFEBABE
DEADBEAF
B16B00B5
A2345678
9ABCDEF0
A5A5A5A5
5A5A5A5A
FFFFFFFF
00000001
87654321
CAFEBABE
DEADBEAF
B16B00B5
A2345678
9ABCDEF0
A5A5A5A5
5A5A5A5A
FFFFFFFF
00000001
87654321
CAFEBABE
DEADBEAF
B16B00B5
A2345678
9ABCDEF0
A5A5A5A5
5A5A5A5A
FFFFFFFF
00000001
87654321
CAFEBABE
DEADBEAF
B16B00B5
A2345678
9ABCDEF0
A5A5A5A5
5A5A5A5A
FFFFFFFF
00000001
87654321
CAFEBABE
DEADBEAF
B16B00B5
A2345678
9ABCDEF0
A5A5A5A5
5A5A5A5A
FFFFFFFF
00000001
87654321
CAFEBABE
DEADBEAF
B16B00B5
A2345678
9ABCDEF0
A5A5A5A5
5A5A5A5A
FFFFFFFF
00000001
87654321
CAFEBABE
DEADBEAF
B16B00B5
A2345678
9ABCDEF0
A5A5A5A5
5A5A5A5A
FFFFFFFF
00000001
87654321
CAFEBABE
DEADBEAF
B16B00B5
A2345678
9ABCDEF0
A5A5A5A5
5A5A5A5A
FFFFFFFF
00000001
87654321
CAFEBABE
DEADBEAF
B16B00B5
A2345678
9ABCDEF0
A5A5A5A5
5A5A5A5A
FFFFFFFF
00000001
87654321
CAFEBABE
DEADBEAF
B16B00B5
A2345678
9ABCDEF0
A5A5A5A5
5A5A5A5A
FFFFFFFF
00000001
87654321
CAFEBABE
DEADBEAF
B16B00B5
A2345678
9ABCDEF0
A5A5A5A5
5A5A5A5A
FFFFFFFF
00000001
87654321
CAFEBABE
DEADBEAF
B16B00B5
A2345678
9ABCDEF0
A5A5A5A5
5A5A5A5A
FFFFFFFF
00000001
87654321
CAFEBABE
DEADBEAF
B16B00B5
A2345678
9ABCDEF0
A5A5A5A5
5A5A5A5A
FFFFFFFF
00000001
87654321
CAFEBABE
DEADBEAF
B16B00B5
A2345678
9ABCDEF0
A5A5A5A5
5A5A5A5A
FFFFFFFF
00000001
87654321
CAFEBABE
DEADBEAF
B16B00B5
A2345678
9ABCDEF0
A5A5A5A5
5A5A5A5A
FFFFFFFF
00000001
87654321
CAFEBABE
DEADBEAF
B16B00B5
A2345678
9ABCDEF0
A5A5A5A5
5A5A5A5A
FFFFFFFF
00000001
87654321
CAFEBABE
DEADBEAF
B16B00B5
A2345678
9ABCDEF0
A5A5A5A5
5A5A5A5A
FFFFFFFF
00000001
87654321
CAFEBABE
DEADBEAF
B16B00B5
A2345678
9ABCDEF0
A5A5A5A5
5A5A5A5A
FFFFFFFF
00000001
87654321
CAFEBABE
DEADBEAF
B16B00B5
A2345678
9ABCDEF0
A5A5A5A5
5A5A5A5A
FFFFFFFF
00000001
87654321
CAFEBABE
DEADBEAF
B16B00B5
A2345678
9ABCDEF0
A5A5A5A5
5A5A5A5A
FFFFFFFF
00000001
87654321
CAFEBABE
DEADBEAF
B16B00B5
A2345678
9ABCDEF0
A5A5A5A5
5A5A5A5A
FFFFFFFF
00000001
87654321
CAFEBABE
DEADBEAF
B16B00B5
A2345678
9ABCDEF0
A5A5A5A5
5A5A5A5A
FFFFFFFF
00000001
87654321
CAFEBABE
DEADBEAF
B16B00B5
A2345678
9ABCDEF0
A5A5A5A5
5A5A5A5A
FFFFFFFF
00000001
87654321
CAFEBABE
DEADBEAF
B16B00B5
A2345678
9ABCDEF0
A5A5A5A5
5A5A5A5A
FFFFFFFF
00000001
87654321
CAFEBABE
DEADBEAF
B16B00B5
A2345678
9ABCDEF0
A5A5A5A5
5A5A5A5A
FFFFFFFF
00000001
87654321
CAFEBABE
DEADBEAF
B16B00B5
A2345678
9ABCDEF0
A5A5A5A5
5A5A5A5A
FFFFFFFF
00000001
87654321
CAFEBABE
DEADBEAF
B16B00B5
A2345678
9ABCDEF0
A5A5A5A5
5A5A5A5A
FFFFFFFF
00000001
87654321
CAFEBABE
DEADBEAF
B16B00B5
A2345678
9ABCDEF0
A5A5A5A5
5A5A5A5A
FFFFFFFF
00000001
87654321
CAFEBABE
DEADBEAF
B16B00B5
A2345678
9ABCDEF0
A5A5A5A5
5A5A5A5A
FFFFFFFF
00000001
87654321
CAFEBABE
DEADBEAF
B16B00B5
A2345678
9ABCDEF0
A5A5A5A5
5A5A5A5A
FFFFFFFF
00000001
87654321
CAFEBABE
DEADBEAF
B16B00B5
A2345678
9ABCDEF0
A5A5A5A5
5A5A5A5A
FFFFFFFF
00000001
87654321
CAFEBABE
DEADBEAF
B16B00B5
A2345678
9ABCDEF0
A5A5A5A5
5A5A5A5A
FFFFFFFF
00000001
87654321
CAFEBABE
DEADBEAF
B16B00B5
A2345678
9ABCDEF0
A5A5A5A5
5A5A5A5A
FFFFFFFF
00000001
87654321
CAFEBABE
DEADBEAF
B16B00B5
A2345678
9ABCDEF0
A5A5A5A5
5A5A5A5A
FFFFFFFF
00000001
87654321
CAFEBABE
DEADBEAF
B16B00B5
A2345678
9ABCDEF0
A5A5A5A5
5A5A5A5A
FFFFFFFF
00000001
87654321
CAFEBABE
DEADBEAF
B16B00B5
A2345678
9ABCDEF0
A5A5A5A5
5A5A5A5A
FFFFFFFF
00000001
87654321
CAFEBABE
DEADBEAF
B16B00B5
A2345678
9ABCDEF0
A5A5A5A5
5A5A5A5A
FFFFFFFF
00000001
87654321
CAFEBABE
DEADBEAF
B16B00B5
A2345678
9ABCDEF0
A5A5A5A5
5A5A5A5A
FFFFFFFF
00000001
87654321
CAFEBABE
DEADBEAF
B16B00B5
A2345678
9ABCDEF0
A5A5A5A5
5A5A5A5A
FFFFFFFF
00000001
87654321
CAFEBABE
DEADBEAF
B16B00B5
A2345678
9ABCDEF0
A5A5A5A5
5A5A5A5A
FFFFFFFF
00000001
87654321
CAFEBABE
DEADBEAF
B16B00B5
A2345678
9ABCDEF0
A5A5A5A5
5A5A5A5A
FFFFFFFF
00000001
87654321
CAFEBABE
DEADBEAF
B16B00B5
A2345678
9ABCDEF0
A5A5A5A5
5A5A5A5A
FFFFFFFF
00000001
87654321
CAFEBABE
DEADBEAF
B16B00B5
A2345678
9ABCDEF0
A5A5A5A5
5A5A5A5A
FFFFFFFF
00000001
87654321
CAFEBABE
DEADBEAF
B16B00B5
A2345678
9ABCDEF0
A5A5A5A5
5A5A5A5A
FFFFFFFF
00000001
87654321
CAFEBABE
DEADBEAF
B16B00B5
A2345678
9ABCDEF0
A5A5A5A5
5A5A5A5A
FFFFFFFF
00000001
87654321
CAFEBABE
DEADBEAF
B16B00B5
A2345678
9ABCDEF0
A5A5A5A5
5A5A5A5A
FFFFFFFF
00000001
87654321
CAFEBABE
DEADBEAF
B16B00B5
A2345678
9ABCDEF0
A5A5A5A5
5A5A5A5A
FFFFFFFF
00000001
87654321
CAFEBABE
DEADBEAF
B16B00B5
A2345678
9ABCDEF0
A5A5A5A5
5A5A5A5A
FFFFFFFF
00000001
87654321
CAFEBABE
DEADBEAF
B16B00B5
A2345678
9ABCDEF0
A5A5A5A5
5A5A5A5A
FFFFFFFF
00000001
87654321
CAFEBABE
DEADBEAF
B16B00B5
A2345678
9ABCDEF0
A5A5A5A5
5A5A5A5A
FFFFFFFF
00000001
87654321
CAFEBABE
DEADBEAF
B16B00B5
A2345678
9ABCDEF0
A5A5A5A5
5A5A5A5A
FFFFFFFF
00000001
87654321
CAFEBABE
DEADBEAF
B16B00B5
A2345678
9ABCDEF0
A5A5A5A5
5A5A5A5A
FFFFFFFF
00000001
87654321
CAFEBABE
DEADBEAF
B16B00B5
A2345678
9ABCDEF0
A5A5A5A5
5A5A5A5A
FFFFFFFF
00000001
87654321
CAFEBABE
DEADBEAF
B16B00B5
A2345678
9ABCDEF0
A5A5A5A5
5A5A5A5A
FFFFFFFF
00000001
87654321
CAFEBABE
DEADBEAF
B16B00B5
A2345678
9ABCDEF0
A5A5A5A5
5A5A5A5A
FFFFFFFF
00000001
87654321
CAFEBABE
DEADBEAF
B16B00B5
A2345678
9ABCDEF0
A5A5A5A5
5A5A5A5A
FFFFFFFF
00000001
87654321
CAFEBABE
DEADBEAF
B16B00B5
A2345678
9ABCDEF0
A5A5A5A5
5A5A5A5A
FFFFFFFF
00000001
87654321
CAFEBABE
DEADBEAF
B16B00B5
A2345678
9ABCDEF0
A5A5A5A5
5A5A5A5A
FFFFFFFF
00000001
87654321
CAFEBABE
DEADBEAF
B16B00B5
A2345678
9ABCDEF0
A5A5A5A5
5A5A5A5A
FFFFFFFF
00000001
87654321
CAFEBABE
DEADBEAF
B16B00B5
A2345678
9ABCDEF0
A5A5A5A5
5A5A5A5A
FFFFFFFF
00000001
87654321
CAFEBABE
DEADBEAF
B16B00B5
A2345678
9ABCDEF0
A5A5A5A5
5A5A5A5A
FFFFFFFF
00000001
87654321
CAFEBABE
DEADBEAF
B16B00B5
A2345678
9ABCDEF0
A5A5A5A5
5A5A5A5A
FFFFFFFF
00000001
87654321
CAFEBABE
DEADBEAF
B16B00B5
A2345678
9ABCDEF0
A5A5A5A5
5A5A5A5A
FFFFFFFF
00000001
87654321
CAFEBABE
DEADBEAF
B16B00B5
A2345678
9ABCDEF0
A5A5A5A5
5A5A5A5A
FFFFFFFF
00000001
87654321
CAFEBABE
DEADBEAF
B16B00B5
A2345678
9ABCDEF0
A5A5A5A5
5A5A5A5A
FFFFFFFF
00000001
87654321
CAFEBABE
DEADBEAF
B16B00B5
A2345678
9ABCDEF0
A5A5A5A5
5A5A5A5A
FFFFFFFF
00000001
87654321
CAFEBABE
DEADBEAF
B16B00B5
A2345678
9ABCDEF0
A5A5A5A5
5A5A5A5A
FFFFFFFF
00000001
87654321
CAFEBABE
DEADBEAF
B16B00B5
A2345678
9ABCDEF0
A5A5A5A5
5A5A5A5A
FFFFFFFF
00000001
87654321
CAFEBABE
DEADBEAF
B16B00B5
A2345678
9ABCDEF0
A5A5A5A5
5A5A5A5A
FFFFFFFF
00000001
87654321
CAFEBABE
DEADBEAF
B16B00B5
A2345678
9ABCDEF0
A5A5A5A5
5A5A5A5A
FFFFFFFF
00000001
87654321
CAFEBABE
DEADBEAF
B16B00B5
A2345678
9ABCDEF0
A5A5A5A5
5A5A5A5A
FFFFFFFF
00000001
87654321
CAFEBABE
DEADBEAF
B16B00B5
A2345678
9ABCDEF0
A5A5A5A5
5A5A5A5A
FFFFFFFF
00000001
87654321
CAFEBABE
DEADBEAF
B16B00B5
A2345678
9ABCDEF0
A5A5A5A5
5A5A5A5A
FFFFFFFF
00000001
87654321
CAFEBABE
DEADBEAF
B16B00B5
A2345678
9ABCDEF0
A5A5A5A5
5A5A5A5A
FFFFFFFF
00000001
87654321
CAFEBABE
DEADBEAF
B16B00B5
A2345678
9ABCDEF0
A5A5A5A5
5A5A5A5A
FFFFFFFF
00000001
87654321
CAFEBABE
DEADBEAF
B16B00B5
A2345678
9ABCDEF0
A5A5A5A5
5A5A5A5A
FFFFFFFF
00000001
87654321
CAFEBABE
DEADBEAF
B16B00B5
A2345678
9ABCDEF0
A5A5A5A5
5A5A5A5A
FFFFFFFF
00000001
87654321
CAFEBABE
DEADBEAF
B16B00B5
A2345678
9ABCDEF0
A5A5A5A5
5A5A5A5A
FFFFFFFF
00000001
87654321
CAFEBABE
DEADBEAF
B16B00B5
A2345678
9ABCDEF0
A5A5A5A5
5A5A5A5A
FFFFFFFF
00000001
87654321
CAFEBABE
DEADBEAF
B16B00B5
A2345678
9ABCDEF0
A5A5A5A5
5A5A5A5A
FFFFFFFF
00000001
87654321
CAFEBABE
DEADBEAF
B16B00B5
A2345678
9ABCDEF0
A5A5A5A5
5A5A5A5A
FFFFFFFF
00000001
87654321
CAFEBABE
DEADBEAF
B16B00B5
A2345678
9ABCDEF0
A5A5A5A5
5A5A5A5A
FFFFFFFF
00000001
87654321
CAFEBABE
DEADBEAF
B16B00B5
A2345678
9ABCDEF0
A5A5A5A5
5A5A5A5A
FFFFFFFF
00000001
87654321
CAFEBABE
DEADBEAF
B16B00B5
A2345678
9ABCDEF0
A5A5A5A5
5A5A5A5A
FFFFFFFF
00000001
87654321
CAFEBABE
DEADBEAF
B16B00B5
A2345678
9ABCDEF0
A5A5A5A5
5A5A5A5A
FFFFFFFF
00000001
87654321
CAFEBABE
DEADBEAF
B16B00B5
A2345678
9ABCDEF0
A5A5A5A5
5A5A5A5A
FFFFFFFF
00000001
87654321
CAFEBABE
DEADBEAF
B16B00B5
A2345678
9ABCDEF0
A5A5A5A5
5A5A5A5A
FFFFFFFF
00000001
87654321
CAFEBABE
DEADBEAF
B16B00B5
A2345678
9ABCDEF0
A5A5A5A5
5A5A5A5A
FFFFFFFF
00000001
87654321
CAFEBABE
DEADBEAF
B16B00B5
A2345678
9ABCDEF0
A5A5A5A5
5A5A5A5A
FFFFFFFF
00000001
87654321
CAFEBABE
DEADBEAF
B16B00B5
A2345678
9ABCDEF0
A5A5A5A5
5A5A5A5A
FFFFFFFF
00000001
87654321
CAFEBABE
DEADBEAF
B16B00B5
A2345678
9ABCDEF0
A5A5A5A5
5A5A5A5A
FFFFFFFF
00000001
87654321
CAFEBABE
DEADBEAF
B16B00B5
A2345678
9ABCDEF0
A5A5A5A5
5A5A5A5A
FFFFFFFF
00000001
87654321
CAFEBABE
DEADBEAF
B16B00B5
A2345678
9ABCDEF0
A5A5A5A5
5A5A5A5A
FFFFFFFF
00000001
87654321
CAFEBABE
DEADBEAF
B16B00B5
A2345678
9ABCDEF0
A5A5A5A5
5A5A5A5A
FFFFFFFF
00000001
87654321
CAFEBABE
DEADBEAF
B16B00B5
A2345678
9ABCDEF0
A5A5A5A5
5A5A5A5A
FFFFFFFF
00000001
87654321
CAFEBABE
DEADBEAF
B16B00B5
A2345678
9ABCDEF0
A5A5A5A5
5A5A5A5A
FFFFFFFF
00000001
87654321
CAFEBABE
DEADBEAF
B16B00B5
A2345678
9ABCDEF0
A5A5A5A5
5A5A5A5A
FFFFFFFF
00000001
87654321
CAFEBABE
DEADBEAF
B16B00B5
A2345678
9ABCDEF0
A5A5A5A5
5A5A5A5A
FFFFFFFF
00000001
87654321
CAFEBABE
DEADBEAF
B16B00B5
A2345678
9ABCDEF0
A5A5A5A5
5A5A5A5A
FFFFFFFF
00000001
87654321
CAFEBABE
DEADBEAF
B16B00B5
A2345678
9ABCDEF0
A5A5A5A5
5A5A5A5A
FFFFFFFF
00000001
87654321
CAFEBABE
DEADBEAF
B16B00B5
A2345678
9ABCDEF0
A5A5A5A5
5A5A5A5A
FFFFFFFF
00000001
87654321
CAFEBABE
DEADBEAF
B16B00B5
A2345678
9ABCDEF0
A5A5A5A5
5A5A5A5A
FFFFFFFF
00000001
87654321
CAFEBABE
DEADBEAF
B16B00B5
A2345678
9ABCDEF0
A5A5A5A5
5A5A5A5A
FFFFFFFF
00000001
87654321
CAFEBABE
DEADBEAF
B16B00B5
A2345678
9ABCDEF0
A5A5A5A5
5A5A5A5A
FFFFFFFF
00000001
87654321
CAFEBABE
DEADBEAF
B16B00B5
A2345678
9ABCDEF0
A5A5A5A5
5A5A5A5A
FFFFFFFF
00000001
87654321
CAFEBABE
DEADBEAF
B16B00B5
A2345678
9ABCDEF0
A5A5A5A5
5A5A5A5A
FFFFFFFF
00000001
87654321
CAFEBABE
DEADBEAF
B16B00B5
A2345678
9ABCDEF0
A5A5A5A5
5A5A5A5A
FFFFFFFF
00000001
87654321
CAFEBABE
DEADBEAF
B16B00B5
A2345678
9ABCDEF0
A5A5A5A5
5A5A5A5A
FFFFFFFF
00000001
87654321
CAFEBABE
DEADBEAF
B16B00B5
A2345678
9ABCDEF0
A5A5A5A5
5A5A5A5A
FFFFFFFF
00000001
87654321
CAFEBABE
DEADBEAF
B16B00B5
A2345678
9ABCDEF0
A5A5A5A5
5A5A5A5A
FFFFFFFF
00000001
87654321
CAFEBABE
DEADBEAF
B16B00B5
A2345678
9ABCDEF0
A5A5A5A5
5A5A5A5A
FFFFFFFF
00000001
87654321
CAFEBABE
DEADBEAF
B16B00B5
A2345678
9ABCDEF0
A5A5A5A5
5A5A5A5A
FFFFFFFF
00000001
87654321
CAFEBABE
DEADBEAF
B16B00B5
A2345678
9ABCDEF0
A5A5A5A5
5A5A5A5A
FFFFFFFF
00000001
87654321
CAFEBABE
DEADBEAF
B16B00B5
A2345678
9ABCDEF0
A5A5A5A5
5A5A5A5A
FFFFFFFF
00000001
87654321
CAFEBABE
DEADBEAF
B16B00B5
A2345678
9ABCDEF0
A5A5A5A5
5A5A5A5A
FFFFFFFF
00000001
87654321
CAFEBABE
DEADBEAF
B16B00B5
A2345678
9ABCDEF0
A5A5A5A5
5A5A5A5A
FFFFFFFF
00000001
87654321
CAFEBABE
DEADBEAF
B16B00B5
A2345678
9ABCDEF0
A5A5A5A5
5A5A5A5A
FFFFFFFF
00000001
87654321
CAFEBABE
DEADBEAF
B16B00B5
A2345678
9ABCDEF0
A5A5A5A5
5A5A5A5A
FFFFFFFF
00000001
87654321
CAFEBABE
DEADBEAF
B16B00B5
A2345678
9ABCDEF0
A5A5A5A5
5A5A5A5A
FFFFFFFF
00000001
87654321
CAFEBABE
DEADBEAF
B16B00B5
A2345678
9ABCDEF0
A5A5A5A5
5A5A5A5A
FFFFFFFF
00000001
87654321
CAFEBABE
DEADBEAF
B16B00B5
A2345678
9ABCDEF0
A5A5A5A5
5A5A5A5A
FFFFFFFF
00000001
87654321
CAFEBABE
DEADBEAF
B16B00B5
A2345678
9ABCDEF0
A5A5A5A5
5A5A5A5A
FFFFFFFF
00000001
87654321
CAFEBABE
DEADBEAF
B16B00B5
A2345678
9ABCDEF0
A5A5A5A5
5A5A5A5A
FFFFFFFF
00000001
87654321
CAFEBABE
DEADBEAF
B16B00B5
A2345678
9ABCDEF0
A5A5A5A5
5A5A5A5A
FFFFFFFF
00000001
87654321
CAFEBABE
DEADBEAF
B16B00B5
A2345678
9ABCDEF0
A5A5A5A5
5A5A5A5A
FFFFFFFF
00000001
87654321
CAFEBABE
DEADBEAF
B16B00B5
A2345678
9ABCDEF0
A5A5A5A5
5A5A5A5A
FFFFFFFF
00000001
87654321
CAFEBABE
DEADBEAF
B16B00B5
A2345678
9ABCDEF0
A5A5A5A5
5A5A5A5A
FFFFFFFF
00000001
87654321
CAFEBABE
DEADBEAF
B16B00B5
A2345678
9ABCDEF0
A5A5A5A5
5A5A5A5A
FFFFFFFF
00000001
87654321
CAFEBABE
DEADBEAF
B16B00B5
A2345678
9ABCDEF0
A5A5A5A5
5A5A5A5A
FFFFFFFF
00000001
87654321
CAFEBABE
DEADBEAF
B16B00B5
A2345678
9ABCDEF0
A5A5A5A5
5A5A5A5A
FFFFFFFF
00000001
87654321
CAFEBABE
DEADBEAF
B16B00B5
A2345678
9ABCDEF0
A5A5A5A5
5A5A5A5A
FFFFFFFF
00000001
87654321
CAFEBABE
DEADBEAF
B16B00B5
A2345678
9ABCDEF0
A5A5A5A5
5A5A5A5A
FFFFFFFF
00000001
87654321
CAFEBABE
DEADBEAF
B16B00B5
A2345678
9ABCDEF0
A5A5A5A5
5A5A5A5A
FFFFFFFF
00000001
87654321
CAFEBABE
DEADBEAF
B16B00B5
A2345678
9ABCDEF0
A5A5A5A5
5A5A5A5A
FFFFFFFF
00000001
87654321
CAFEBABE
DEADBEAF
B16B00B5
A2345678
9ABCDEF0
A5A5A5A5
5A5A5A5A
FFFFFFFF
00000001
87654321
CAFEBABE
DEADBEAF
B16B00B5
A2345678
9ABCDEF0
A5A5A5A5
5A5A5A5A
FFFFFFFF
00000001
87654321
CAFEBABE
DEADBEAF
B16B00B5
A2345678
9ABCDEF0
A5A5A5A5
5A5A5A5A
FFFFFFFF
00000001
87654321
CAFEBABE
DEADBEAF
B16B00B5
A2345678
9ABCDEF0
A5A5A5A5
5A5A5A5A
FFFFFFFF
00000001
87654321
CAFEBABE
DEADBEAF
B16B00B5
A2345678
9ABCDEF0
A5A5A5A5
5A5A5A5A
FFFFFFFF
00000001
87654321
CAFEBABE
DEADBEAF
B16B00B5
A2345678
9ABCDEF0
A5A5A5A5
5A5A5A5A
FFFFFFFF
00000001
87654321
CAFEBABE
DEADBEAF
B16B00B5
A2345678
9ABCDEF0
A5A5A5A5
5A5A5A5A
FFFFFFFF
00000001
87654321
CAFEBABE
DEADBEAF
B16B00B5
A2345678
9ABCDEF0
A5A5A5A5
5A5A5A5A
FFFFFFFF
00000001
87654321
CAFEBABE
DEADBEAF
B16B00B5
A2345678
9ABCDEF0
A5A5A5A5
5A5A5A5A
FFFFFFFF
00000001
87654321
CAFEBABE
DEADBEAF
B16B00B5
A2345678
9ABCDEF0
A5A5A5A5
5A5A5A5A
FFFFFFFF
00000001
87654321
CAFEBABE
DEADBEAF
B16B00B5
A2345678
9ABCDEF0
A5A5A5A5
5A5A5A5A
FFFFFFFF
00000001
87654321
CAFEBABE
DEADBEAF
B16B00B5
A2345678
9ABCDEF0
A5A5A5A5
5A5A5A5A
FFFFFFFF
00000001
87654321
CAFEBABE
DEADBEAF
B16B00B5
A2345678
9ABCDEF0
A5A5A5A5
5A5A5A5A
FFFFFFFF
00000001
87654321
CAFEBABE
DEADBEAF
B16B00B5
A2345678
9ABCDEF0
A5A5A5A5
5A5A5A5A
FFFFFFFF
00000001
87654321
CAFEBABE
DEADBEAF
B16B00B5
A2345678
9ABCDEF0
A5A5A5A5
5A5A5A5A
FFFFFFFF
00000001
87654321
CAFEBABE
DEADBEAF
B16B00B5
A2345678
9ABCDEF0
A5A5A5A5
5A5A5A5A
FFFFFFFF
00000001
87654321
CAFEBABE
DEADBEAF
B16B00B5
A2345678
9ABCDEF0
A5A5A5A5
5A5A5A5A
FFFFFFFF
00000001
87654321
CAFEBABE
DEADBEAF
B16B00B5
A2345678
9ABCDEF0
A5A5A5A5
5A5A5A5A
FFFFFFFF
00000001
87654321
CAFEBABE
DEADBEAF
B16B00B5
A2345678
9ABCDEF0
A5A5A5A5
5A5A5A5A
FFFFFFFF
00000001
87654321
CAFEBABE
DEADBEAF
B16B00B5
A2345678
9ABCDEF0
A5A5A5A5
5A5A5A5A
FFFFFFFF
00000001
87654321
CAFEBABE
DEADBEAF
B16B00B5
A2345678
9ABCDEF0
A5A5A5A5
5A5A5A5A
FFFFFFFF
00000001
87654321
CAFEBABE
DEADBEAF
B16B00B5
A2345678
9ABCDEF0
A5A5A5A5
5A5A5A5A
FFFFFFFF
00000001
87654321
CAFEBABE
DEADBEAF
B16B00B5
A2345678
9ABCDEF0
A5A5A5A5
5A5A5A5A
FFFFFFFF
00000001
87654321
CAFEBABE
DEADBEAF
B16B00B5
A2345678
9ABCDEF0
A5A5A5A5
5A5A5A5A
FFFFFFFF
00000001
87654321
CAFEBABE
DEADBEAF
B16B00B5
A2345678
9ABCDEF0
A5A5A5A5
5A5A5A5A
FFFFFFFF
00000001
87654321
CAFEBABE
DEADBEAF
B16B00B5
A2345678
9ABCDEF0
A5A5A5A5
5A5A5A5A
FFFFFFFF
00000001
87654321
CAFEBABE
DEADBEAF
B16B00B5
A2345678
9ABCDEF0
A5A5A5A5
5A5A5A5A
FFFFFFFF
00000001
87654321
CAFEBABE
DEADBEAF
B16B00B5
A2345678
9ABCDEF0
A5A5A5A5
5A5A5A5A
FFFFFFFF
00000001
87654321
CAFEBABE
DEADBEAF
B16B00B5
A2345678
9ABCDEF0
A5A5A5A5
5A5A5A5A
FFFFFFFF
00000001
87654321
CAFEBABE
DEADBEAF
B16B00B5
A2345678
9ABCDEF0
A5A5A5A5
5A5A5A5A
FFFFFFFF
00000001
87654321
CAFEBABE
DEADBEAF
B16B00B5
A2345678
9ABCDEF0
A5A5A5A5
5A5A5A5A
FFFFFFFF
00000001
87654321
CAFEBABE
DEADBEAF
B16B00B5
A2345678
9ABCDEF0
A5A5A5A5
5A5A5A5A
FFFFFFFF
00000001
87654321
CAFEBABE
DEADBEAF
B16B00B5
A2345678
9ABCDEF0
A5A5A5A5
5A5A5A5A
FFFFFFFF
00000001
87654321
CAFEBABE
DEADBEAF
B16B00B5
A2345678
9ABCDEF0
A5A5A5A5
5A5A5A5A
FFFFFFFF
00000001
87654321
CAFEBABE
DEADBEAF
B16B00B5
A2345678
9ABCDEF0
A5A5A5A5
5A5A5A5A
FFFFFFFF
00000001
87654321
CAFEBABE
DEADBEAF
B16B00B5
A2345678
9ABCDEF0
A5A5A5A5
5A5A5A5A
FFFFFFFF
00000001
87654321
CAFEBABE
DEADBEAF
B16B00B5
A2345678
9ABCDEF0
A5A5A5A5
5A5A5A5A
FFFFFFFF
00000001
87654321
CAFEBABE
DEADBEAF
B16B00B5
A2345678
9ABCDEF0
A5A5A5A5
5A5A5A5A
FFFFFFFF
00000001
87654321
CAFEBABE
DEADBEAF
B16B00B5
A2345678
9ABCDEF0
A5A5A5A5
5A5A5A5A
FFFFFFFF
00000001
87654321
CAFEBABE
DEADBEAF
B16B00B5
A2345678
9ABCDEF0
A5A5A5A5
5A5A5A5A
FFFFFFFF
00000001
87654321
CAFEBABE
DEADBEAF
B16B00B5
A2345678
9ABCDEF0
A5A5A5A5
5A5A5A5A
FFFFFFFF
00000001
87654321
CAFEBABE
DEADBEAF
B16B00B5
A2345678
9ABCDEF0
A5A5A5A5
5A5A5A5A
FFFFFFFF
00000001
87654321
CAFEBABE
DEADBEAF
B16B00B5
A2345678
9ABCDEF0
A5A5A5A5
5A5A5A5A
FFFFFFFF
00000001
87654321
CAFEBABE
DEADBEAF
B16B00B5
A2345678
9ABCDEF0
A5A5A5A5
5A5A5A5A
FFFFFFFF
00000001
87654321
CAFEBABE
DEADBEAF
B16B00B5
A2345678
9ABCDEF0
A5A5A5A5
5A5A5A5A
FFFFFFFF
00000001
87654321
CAFEBABE
DEADBEAF
B16B00B5
A2345678
9ABCDEF0
A5A5A5A5
5A5A5A5A
FFFFFFFF
00000001
87654321
CAFEBABE
DEADBEAF
B16B00B5
A2345678
9ABCDEF0
A5A5A5A5
5A5A5A5A
FFFFFFFF
00000001
87654321
CAFEBABE
DEADBEAF
B16B00B5
A2345678
9ABCDEF0
A5A5A5A5
5A5A5A5A
FFFFFFFF
00000001
87654321
CAFEBABE
DEADBEAF
B16B00B5
A2345678
9ABCDEF0
A5A5A5A5
5A5A5A5A
FFFFFFFF
00000001
87654321
CAFEBABE
DEADBEAF
B16B00B5
A2345678
9ABCDEF0
A5A5A5A5
5A5A5A5A
FFFFFFFF
00000001
87654321
CAFEBABE
DEADBEAF
B16B00B5
A2345678
9ABCDEF0
A5A5A5A5
5A5A5A5A
FFFFFFFF
00000001
87654321
CAFEBABE
DEADBEAF
B16B00B5
A2345678
9ABCDEF0
A5A5A5A5
5A5A5A5A
FFFFFFFF
00000001
87654321
CAFEBABE
DEADBEAF
B16B00B5
A2345678
9ABCDEF0
A5A5A5A5
5A5A5A5A
FFFFFFFF
00000001
87654321
CAFEBABE
DEADBEAF
B16B00B5
A2345678
9ABCDEF0
A5A5A5A5
5A5A5A5A
FFFFFFFF
00000001
87654321
CAFEBABE
DEADBEAF
B16B00B5
A2345678
9ABCDEF0
A5A5A5A5
5A5A5A5A
FFFFFFFF
00000001
87654321
CAFEBABE
DEADBEAF
B16B00B5
A2345678
9ABCDEF0
A5A5A5A5
5A5A5A5A
FFFFFFFF
00000001
87654321
CAFEBABE
DEADBEAF
B16B00B5
A2345678
9ABCDEF0
A5A5A5A5
5A5A5A5A
FFFFFFFF
00000001
87654321
CAFEBABE
DEADBEAF
B16B00B5
A2345678
9ABCDEF0
A5A5A5A5
5A5A5A5A
FFFFFFFF
00000001
87654321
CAFEBABE
DEADBEAF
B16B00B5
A2345678
9ABCDEF0
A5A5A5A5
5A5A5A5A
FFFFFFFF
00000001
87654321
CAFEBABE
DEADBEAF
B16B00B5
A2345678
9ABCDEF0
A5A5A5A5
5A5A5A5A
FFFFFFFF
00000001
87654321
CAFEBABE
DEADBEAF
B16B00B5
A2345678
9ABCDEF0
A5A5A5A5
5A5A5A5A
FFFFFFFF
00000001
87654321
CAFEBABE
DEADBEAF
B16B00B5
A2345678
9ABCDEF0
A5A5A5A5
5A5A5A5A
FFFFFFFF
00000001
87654321
CAFEBABE
DEADBEAF
B16B00B5
A2345678
9ABCDEF0
A5A5A5A5
5A5A5A5A
FFFFFFFF
00000001
87654321
CAFEBABE
DEADBEAF
B16B00B5
A2345678
9ABCDEF0
A5A5A5A5
5A5A5A5A
FFFFFFFF
00000001
87654321
CAFEBABE
DEADBEAF
B16B00B5
A2345678
9ABCDEF0
A5A5A5A5
5A5A5A5A
FFFFFFFF
00000001
87654321
CAFEBABE
DEADBEAF
B16B00B5
A2345678
9ABCDEF0
A5A5A5A5
5A5A5A5A
FFFFFFFF
00000001
87654321
CAFEBABE
DEADBEAF
B16B00B5
A2345678
9ABCDEF0
A5A5A5A5
5A5A5A5A
FFFFFFFF
00000001
87654321
CAFEBABE
DEADBEAF
B16B00B5
A2345678
9ABCDEF0
A5A5A5A5
5A5A5A5A
FFFFFFFF
00000001
87654321
CAFEBABE
DEADBEAF
B16B00B5
A2345678
9ABCDEF0
A5A5A5A5
5A5A5A5A
FFFFFFFF
00000001
87654321
CAFEBABE
DEADBEAF
B16B00B5
A2345678
9ABCDEF0
A5A5A5A5
5A5A5A5A
FFFFFFFF
00000001
87654321
CAFEBABE
DEADBEAF
B16B00B5
A2345678
9ABCDEF0
A5A5A5A5
5A5A5A5A
FFFFFFFF
00000001
87654321
CAFEBABE
DEADBEAF
B16B00B5
A2345678
9ABCDEF0
A5A5A5A5
5A5A5A5A
FFFFFFFF
00000001
87654321
CAFEBABE
DEADBEAF
B16B00B5
A2345678
9ABCDEF0
A5A5A5A5
5A5A5A5A
FFFFFFFF
00000001
87654321
CAFEBABE
DEADBEAF
B16B00B5
A2345678
9ABCDEF0
A5A5A5A5
5A5A5A5A
FFFFFFFF
00000001
87654321
CAFEBABE
DEADBEAF
B16B00B5
A2345678
9ABCDEF0
A5A5A5A5
5A5A5A5A
FFFFFFFF
00000001
87654321
CAFEBABE
DEADBEAF
B16B00B5
A2345678
9ABCDEF0
A5A5A5A5
5A5A5A5A
FFFFFFFF
00000001
87654321
CAFEBABE
DEADBEAF
B16B00B5
A2345678
9ABCDEF0
A5A5A5A5
5A5A5A5A
FFFFFFFF
00000001
87654321
CAFEBABE
DEADBEAF
B16B00B5
A2345678
9ABCDEF0
A5A5A5A5
5A5A5A5A
FFFFFFFF
00000001
87654321
CAFEBABE
DEADBEAF
B16B00B5
A2345678
9ABCDEF0
A5A5A5A5
5A5A5A5A
FFFFFFFF
00000001
87654321
CAFEBABE
DEADBEAF
B16B00B5
A2345678
9ABCDEF0
A5A5A5A5
5A5A5A5A
FFFFFFFF
00000001
87654321
CAFEBABE
DEADBEAF
B16B00B5
A2345678
9ABCDEF0
A5A5A5A5
5A5A5A5A
FFFFFFFF
00000001
87654321
CAFEBABE
DEADBEAF
B16B00B5
A2345678
9ABCDEF0
A5A5A5A5
5A5A5A5A
FFFFFFFF
00000001
87654321
CAFEBABE
DEADBEAF
B16B00B5
A2345678
9ABCDEF0
A5A5A5A5
5A5A5A5A
FFFFFFFF
00000001
87654321
CAFEBABE
DEADBEAF
B16B00B5
A2345678
9ABCDEF0
A5A5A5A5
5A5A5A5A
FFFFFFFF
00000001
87654321
CAFEBABE
DEADBEAF
B16B00B5
A2345678
9ABCDEF0
A5A5A5A5
5A5A5A5A
FFFFFFFF
00000001
87654321
CAFEBABE
DEADBEAF
B16B00B5
A2345678
9ABCDEF0
A5A5A5A5
5A5A5A5A
FFFFFFFF
00000001
87654321
CAFEBABE
DEADBEAF
B16B00B5
A2345678
9ABCDEF0
A5A5A5A5
5A5A5A5A
FFFFFFFF
00000001
87654321
CAFEBABE
DEADBEAF
B16B00B5
A2345678
9ABCDEF0
A5A5A5A5
5A5A5A5A
FFFFFFFF
00000001
87654321
CAFEBABE
DEADBEAF
B16B00B5
A2345678
9ABCDEF0
A5A5A5A5
5A5A5A5A
FFFFFFFF
00000001
87654321
CAFEBABE
DEADBEAF
B16B00B5
A2345678
9ABCDEF0
A5A5A5A5
5A5A5A5A
FFFFFFFF
00000001
87654321
CAFEBABE
DEADBEAF
B16B00B5
A2345678
9ABCDEF0
A5A5A5A5
5A5A5A5A
FFFFFFFF
00000001
87654321
CAFEBABE
DEADBEAF
B16B00B5
A2345678
9ABCDEF0
A5A5A5A5
5A5A5A5A
FFFFFFFF
00000001
87654321
CAFEBABE
DEADBEAF
B16B00B5
A2345678
9ABCDEF0
A5A5A5A5
5A5A5A5A
FFFFFFFF
00000001
87654321
CAFEBABE
DEADBEAF
B16B00B5
A2345678
9ABCDEF0
A5A5A5A5
5A5A5A5A
FFFFFFFF
00000001
87654321
CAFEBABE
DEADBEAF
B16B00B5
A2345678
9ABCDEF0
A5A5A5A5
5A5A5A5A
FFFFFFFF
00000001
87654321
CAFEBABE
DEADBEAF
B16B00B5
A2345678
9ABCDEF0
A5A5A5A5
5A5A5A5A
FFFFFFFF
00000001
87654321
CAFEBABE
DEADBEAF
B16B00B5
A2345678
9ABCDEF0
A5A5A5A5
5A5A5A5A
FFFFFFFF
00000001
87654321
CAFEBABE
DEADBEAF
B16B00B5
A2345678
9ABCDEF0
A5A5A5A5
5A5A5A5A
FFFFFFFF
00000001
87654321
CAFEBABE
DEADBEAF
B16B00B5
A2345678
9ABCDEF0
A5A5A5A5
5A5A5A5A
FFFFFFFF
00000001
87654321
CAFEBABE
DEADBEAF
B16B00B5
A2345678
9ABCDEF0
A5A5A5A5
5A5A5A5A
FFFFFFFF
00000001
87654321
CAFEBABE
DEADBEAF
B16B00B5
A2345678
9ABCDEF0
A5A5A5A5
5A5A5A5A
FFFFFFFF
00000001
87654321
CAFEBABE
DEADBEAF
B16B00B5
A2345678
9ABCDEF0
A5A5A5A5
5A5A5A5A
FFFFFFFF
00000001
87654321
CAFEBABE
DEADBEAF
B16B00B5
A2345678
9ABCDEF0
A5A5A5A5
5A5A5A5A
FFFFFFFF
00000001
87654321
CAFEBABE
DEADBEAF
B16B00B5
A2345678
9ABCDEF0
A5A5A5A5
5A5A5A5A
FFFFFFFF
00000001
87654321
CAFEBABE
DEADBEAF
B16B00B5
A2345678
9ABCDEF0
A5A5A5A5
5A5A5A5A
FFFFFFFF
00000001
87654321
CAFEBABE
DEADBEAF
B16B00B5
A2345678
9ABCDEF0
A5A5A5A5
5A5A5A5A
FFFFFFFF
00000001
87654321
CAFEBABE
DEADBEAF
B16B00B5
A2345678
9ABCDEF0
A5A5A5A5
5A5A5A5A
FFFFFFFF
00000001
87654321
CAFEBABE
DEADBEAF
B16B00B5
A2345678
9ABCDEF0
A5A5A5A5
5A5A5A5A
FFFFFFFF
00000001
87654321
CAFEBABE
DEADBEAF
B16B00B5
A2345678
9ABCDEF0
A5A5A5A5
5A5A5A5A
FFFFFFFF
00000001
87654321
CAFEBABE
DEADBEAF
B16B00B5
A2345678
9ABCDEF0
A5A5A5A5
5A5A5A5A
FFFFFFFF
00000001
87654321
CAFEBABE
DEADBEAF
B16B00B5
A2345678
9ABCDEF0
A5A5A5A5
5A5A5A5A
FFFFFFFF
00000001
87654321
CAFEBABE
DEADBEAF
B16B00B5
A2345678
9ABCDEF0
A5A5A5A5
5A5A5A5A
FFFFFFFF
00000001
87654321
CAFEBABE
DEADBEAF
B16B00B5
A2345678
9ABCDEF0
A5A5A5A5
5A5A5A5A
FFFFFFFF
00000001
87654321
CAFEBABE
DEADBEAF
B16B00B5
A2345678
9ABCDEF0
A5A5A5A5
5A5A5A5A
FFFFFFFF
00000001
87654321
CAFEBABE
DEADBEAF
B16B00B5
A2345678
9ABCDEF0
A5A5A5A5
5A5A5A5A
FFFFFFFF
00000001
87654321
CAFEBABE
DEADBEAF
B16B00B5
A2345678
9ABCDEF0
A5A5A5A5
5A5A5A5A
FFFFFFFF
00000001
87654321
CAFEBABE
DEADBEAF
B16B00B5
A2345678
9ABCDEF0
A5A5A5A5
5A5A5A5A
FFFFFFFF
00000001
87654321
CAFEBABE
DEADBEAF
B16B00B5
A2345678
9ABCDEF0
A5A5A5A5
5A5A5A5A
FFFFFFFF
00000001
87654321
CAFEBABE
DEADBEAF
B16B00B5
A2345678
9ABCDEF0
A5A5A5A5
5A5A5A5A
FFFFFFFF
00000001
87654321
CAFEBABE
DEADBEAF
B16B00B5
A2345678
9ABCDEF0
A5A5A5A5
5A5A5A5A
FFFFFFFF
00000001
87654321
CAFEBABE
DEADBEAF
B16B00B5
A2345678
9ABCDEF0
A5A5A5A5
5A5A5A5A
FFFFFFFF
00000001
87654321
CAFEBABE
DEADBEAF
B16B00B5
A2345678
9ABCDEF0
A5A5A5A5
5A5A5A5A
FFFFFFFF
00000001
87654321
CAFEBABE
DEADBEAF
B16B00B5
A2345678
9ABCDEF0
A5A5A5A5
5A5A5A5A
FFFFFFFF
00000001
87654321
CAFEBABE
DEADBEAF
B16B00B5
A2345678
9ABCDEF0
A5A5A5A5
5A5A5A5A
FFFFFFFF
00000001
87654321
CAFEBABE
DEADBEAF
B16B00B5
A2345678
9ABCDEF0
A5A5A5A5
5A5A5A5A
FFFFFFFF
00000001
87654321
CAFEBABE
DEADBEAF
B16B00B5
A2345678
9ABCDEF0
A5A5A5A5
5A5A5A5A
FFFFFFFF
00000001
87654321
CAFEBABE
DEADBEAF
B16B00B5
A2345678
9ABCDEF0
A5A5A5A5
5A5A5A5A
FFFFFFFF
00000001
87654321
CAFEBABE
DEADBEAF
B16B00B5
A2345678
9ABCDEF0
A5A5A5A5
5A5A5A5A
FFFFFFFF
00000001
87654321
CAFEBABE
DEADBEAF
B16B00B5
A2345678
9ABCDEF0
A5A5A5A5
5A5A5A5A
FFFFFFFF
00000001
87654321
CAFEBABE
DEADBEAF
B16B00B5
A2345678
9ABCDEF0
A5A5A5A5
5A5A5A5A
FFFFFFFF
00000001
87654321
CAFEBABE
DEADBEAF
B16B00B5
A2345678
9ABCDEF0
A5A5A5A5
5A5A5A5A
FFFFFFFF
00000001
87654321
CAFEBABE
DEADBEAF
B16B00B5
A2345678
9ABCDEF0
A5A5A5A5
5A5A5A5A
FFFFFFFF
00000001
87654321
CAFEBABE
DEADBEAF
B16B00B5
A2345678
9ABCDEF0
A5A5A5A5
5A5A5A5A
FFFFFFFF
00000001
87654321
CAFEBABE
DEADBEAF
B16B00B5
A2345678
9ABCDEF0
A5A5A5A5
5A5A5A5A
FFFFFFFF
00000001
87654321
CAFEBABE
DEADBEAF
B16B00B5
A2345678
9ABCDEF0
A5A5A5A5
5A5A5A5A
FFFFFFFF
00000001
87654321
CAFEBABE
DEADBEAF
B16B00B5
A2345678
9ABCDEF0
A5A5A5A5
5A5A5A5A
FFFFFFFF
00000001
87654321
CAFEBABE
DEADBEAF
B16B00B5
A2345678
9ABCDEF0
A5A5A5A5
5A5A5A5A
FFFFFFFF
00000001
87654321
CAFEBABE
DEADBEAF
B16B00B5
A2345678
9ABCDEF0
A5A5A5A5
5A5A5A5A
FFFFFFFF
00000001
87654321
CAFEBABE
DEADBEAF
B16B00B5
A2345678
9ABCDEF0
A5A5A5A5
5A5A5A5A
FFFFFFFF
00000001
87654321
CAFEBABE
DEADBEAF
B16B00B5
A2345678
9ABCDEF0
A5A5A5A5
5A5A5A5A
FFFFFFFF
00000001
87654321
CAFEBABE
DEADBEAF
B16B00B5
A2345678
9ABCDEF0
A5A5A5A5
5A5A5A5A
FFFFFFFF
00000001
87654321
CAFEBABE
DEADBEAF
B16B00B5
A2345678
9ABCDEF0
A5A5A5A5
5A5A5A5A
FFFFFFFF
00000001
87654321
CAFEBABE
DEADBEAF
B16B00B5
A2345678
9ABCDEF0
A5A5A5A5
5A5A5A5A
FFFFFFFF
00000001
87654321
CAFEBABE
DEADBEAF
B16B00B5
A2345678
9ABCDEF0
A5A5A5A5
5A5A5A5A
FFFFFFFF
00000001
87654321
CAFEBABE
DEADBEAF
B16B00B5
A2345678
9ABCDEF0
A5A5A5A5
5A5A5A5A
FFFFFFFF
00000001
87654321
CAFEBABE
DEADBEAF
B16B00B5
A2345678
9ABCDEF0
A5A5A5A5
5A5A5A5A
FFFFFFFF
00000001
87654321
CAFEBABE
DEADBEAF
B16B00B5
A2345678
9ABCDEF0
A5A5A5A5
5A5A5A5A
FFFFFFFF
00000001
87654321
CAFEBABE
DEADBEAF
B16B00B5
A2345678
9ABCDEF0
A5A5A5A5
5A5A5A5A
FFFFFFFF
00000001
87654321
CAFEBABE
DEADBEAF
B16B00B5
A2345678
9ABCDEF0
A5A5A5A5
5A5A5A5A
FFFFFFFF
00000001
87654321
CAFEBABE
DEADBEAF
B16B00B5
A2345678
9ABCDEF0
A5A5A5A5
5A5A5A5A
FFFFFFFF
00000001
87654321
CAFEBABE
DEADBEAF
B16B00B5
A2345678
9ABCDEF0
A5A5A5A5
5A5A5A5A
FFFFFFFF
00000001
87654321
CAFEBABE
DEADBEAF
B16B00B5
A2345678
9ABCDEF0
A5A5A5A5
5A5A5A5A
FFFFFFFF
00000001
87654321
CAFEBABE
DEADBEAF
B16B00B5
A2345678
9ABCDEF0
A5A5A5A5
5A5A5A5A
FFFFFFFF
00000001
87654321
CAFEBABE
DEADBEAF
B16B00B5
A2345678
9ABCDEF0
A5A5A5A5
5A5A5A5A
FFFFFFFF
00000001
87654321
CAFEBABE
DEADBEAF
B16B00B5
A2345678
9ABCDEF0
A5A5A5A5
5A5A5A5A
FFFFFFFF
00000001
87654321
CAFEBABE
DEADBEAF
B16B00B5
A2345678
9ABCDEF0
A5A5A5A5
5A5A5A5A
FFFFFFFF
00000001
87654321
CAFEBABE
DEADBEAF
B16B00B5
A2345678
9ABCDEF0
A5A5A5A5
5A5A5A5A
FFFFFFFF
00000001
87654321
CAFEBABE
DEADBEAF
B16B00B5
A2345678
9ABCDEF0
A5A5A5A5
5A5A5A5A
FFFFFFFF
00000001
87654321
CAFEBABE
DEADBEAF
B16B00B5
A2345678
9ABCDEF0
A5A5A5A5
5A5A5A5A
FFFFFFFF
00000001
87654321
CAFEBABE
DEADBEAF
B16B00B5
A2345678
9ABCDEF0
A5A5A5A5
5A5A5A5A
FFFFFFFF
00000001
87654321
CAFEBABE
DEADBEAF
B16B00B5
A2345678
9ABCDEF0
A5A5A5A5
5A5A5A5A
FFFFFFFF
00000001
87654321
CAFEBABE
DEADBEAF
B16B00B5
A2345678
9ABCDEF0
A5A5A5A5
5A5A5A5A
FFFFFFFF
00000001
87654321
CAFEBABE
DEADBEAF
B16B00B5
A2345678
9ABCDEF0
A5A5A5A5
5A5A5A5A
FFFFFFFF
00000001
87654321
CAFEBABE
DEADBEAF
B16B00B5
A2345678
9ABCDEF0
A5A5A5A5
5A5A5A5A
FFFFFFFF
00000001
87654321
CAFEBABE
DEADBEAF
B16B00B5
A2345678
9ABCDEF0
A5A5A5A5
5A5A5A5A
FFFFFFFF
00000001
87654321
CAFEBABE
DEADBEAF
B16B00B5
A2345678
9ABCDEF0
A5A5A5A5
5A5A5A5A
FFFFFFFF
00000001
87654321
CAFEBABE
DEADBEAF
B16B00B5
A2345678
9ABCDEF0
A5A5A5A5
5A5A5A5A
FFFFFFFF
00000001
87654321
CAFEBABE
DEADBEAF
B16B00B5
A2345678
9ABCDEF0
A5A5A5A5
5A5A5A5A
FFFFFFFF
00000001
87654321
CAFEBABE
DEADBEAF
B16B00B5
A2345678
9ABCDEF0
A5A5A5A5
5A5A5A5A
FFFFFFFF
00000001
87654321
CAFEBABE
DEADBEAF
B16B00B5
A2345678
9ABCDEF0
A5A5A5A5
5A5A5A5A
FFFFFFFF
00000001
87654321
CAFEBABE
DEADBEAF
B16B00B5
A2345678
9ABCDEF0
A5A5A5A5
5A5A5A5A
FFFFFFFF
00000001
87654321
CAFEBABE
DEADBEAF
B16B00B5
A2345678
9ABCDEF0
A5A5A5A5
5A5A5A5A
FFFFFFFF
00000001
87654321
CAFEBABE
DEADBEAF
B16B00B5
A2345678
9ABCDEF0
A5A5A5A5
5A5A5A5A
FFFFFFFF
00000001
87654321
CAFEBABE
DEADBEAF
B16B00B5
A2345678
9ABCDEF0
A5A5A5A5
5A5A5A5A
FFFFFFFF
00000001
87654321
CAFEBABE
DEADBEAF
B16B00B5
A2345678
9ABCDEF0
A5A5A5A5
5A5A5A5A
FFFFFFFF
00000001
87654321
CAFEBABE
DEADBEAF
B16B00B5
A2345678
9ABCDEF0
A5A5A5A5
5A5A5A5A
FFFFFFFF
00000001
87654321
CAFEBABE
DEADBEAF
B16B00B5
A2345678
9ABCDEF0
A5A5A5A5
5A5A5A5A
FFFFFFFF
00000001
87654321
CAFEBABE
DEADBEAF
B16B00B5
A2345678
9ABCDEF0
A5A5A5A5
5A5A5A5A
FFFFFFFF
00000001
87654321
CAFEBABE
DEADBEAF
B16B00B5
A2345678
9ABCDEF0
A5A5A5A5
5A5A5A5A
FFFFFFFF
00000001
87654321
CAFEBABE
DEADBEAF
B16B00B5
A2345678
9ABCDEF0
A5A5A5A5
5A5A5A5A
FFFFFFFF
00000001
87654321
CAFEBABE
DEADBEAF
B16B00B5
A2345678
9ABCDEF0
A5A5A5A5
5A5A5A5A
FFFFFFFF
00000001
87654321
CAFEBABE
DEADBEAF
B16B00B5
A2345678
9ABCDEF0
A5A5A5A5
5A5A5A5A
FFFFFFFF
00000001
87654321
CAFEBABE
DEADBEAF
B16B00B5
A2345678
9ABCDEF0
A5A5A5A5
5A5A5A5A
FFFFFFFF
00000001
87654321
CAFEBABE
DEADBEAF
B16B00B5
A2345678
9ABCDEF0
A5A5A5A5
5A5A5A5A
FFFFFFFF
00000001
87654321
CAFEBABE
DEADBEAF
B16B00B5
A2345678
9ABCDEF0
A5A5A5A5
5A5A5A5A
FFFFFFFF
00000001
87654321
CAFEBABE
DEADBEAF
B16B00B5
A2345678
9ABCDEF0
A5A5A5A5
5A5A5A5A
FFFFFFFF
00000001
87654321
CAFEBABE
DEADBEAF
B16B00B5
A2345678
9ABCDEF0
A5A5A5A5
5A5A5A5A
FFFFFFFF
00000001
87654321
CAFEBABE
DEADBEAF
B16B00B5
A2345678
9ABCDEF0
A5A5A5A5
5A5A5A5A
FFFFFFFF
00000001
87654321
CAFEBABE
DEADBEAF
B16B00B5
A2345678
9ABCDEF0
A5A5A5A5
5A5A5A5A
FFFFFFFF
00000001
87654321
CAFEBABE
DEADBEAF
B16B00B5
A2345678
9ABCDEF0
A5A5A5A5
5A5A5A5A
FFFFFFFF
00000001
87654321
CAFEBABE
DEADBEAF
B16B00B5
A2345678
9ABCDEF0
A5A5A5A5
5A5A5A5A
FFFFFFFF
00000001
87654321
CAFEBABE
DEADBEAF
B16B00B5
A2345678
9ABCDEF0
A5A5A5A5
5A5A5A5A
FFFFFFFF
00000001
87654321
CAFEBABE
DEADBEAF
B16B00B5
A2345678
9ABCDEF0
A5A5A5A5
5A5A5A5A
FFFFFFFF
00000001
87654321
CAFEBABE
DEADBEAF
B16B00B5
A2345678
9ABCDEF0
A5A5A5A5
5A5A5A5A
FFFFFFFF
00000001
87654321
CAFEBABE
DEADBEAF
B16B00B5
A2345678
9ABCDEF0
A5A5A5A5
5A5A5A5A
FFFFFFFF
00000001
87654321
CAFEBABE
DEADBEAF
B16B00B5
A2345678
9ABCDEF0
A5A5A5A5
5A5A5A5A
FFFFFFFF
00000001
87654321
CAFEBABE
DEADBEAF
B16B00B5
A2345678
9ABCDEF0
A5A5A5A5
5A5A5A5A
FFFFFFFF
00000001
87654321
CAFEBABE
DEADBEAF
B16B00B5
A2345678
9ABCDEF0
A5A5A5A5
5A5A5A5A
FFFFFFFF
00000001
87654321
CAFEBABE
DEADBEAF
B16B00B5
A2345678
9ABCDEF0
A5A5A5A5
5A5A5A5A
FFFFFFFF
00000001
87654321
CAFEBABE
DEADBEAF
B16B00B5
A2345678
9ABCDEF0
A5A5A5A5
5A5A5A5A
FFFFFFFF
00000001
87654321
CAFEBABE
DEADBEAF
B16B00B5
A2345678
9ABCDEF0
A5A5A5A5
5A5A5A5A
FFFFFFFF
00000001
87654321
CAFEBABE
DEADBEAF
B16B00B5
A2345678
9ABCDEF0
A5A5A5A5
5A5A5A5A
FFFFFFFF
00000001
87654321
CAFEBABE
DEADBEAF
B16B00B5
A2345678
9ABCDEF0
A5A5A5A5
5A5A5A5A
FFFFFFFF
00000001
87654321
CAFEBABE
DEADBEAF
B16B00B5
A2345678
9ABCDEF0
A5A5A5A5
5A5A5A5A
FFFFFFFF
00000001
87654321
CAFEBABE
DEADBEAF
B16B00B5
A2345678
9ABCDEF0
A5A5A5A5
5A5A5A5A
FFFFFFFF
00000001
87654321
CAFEBABE
DEADBEAF
B16B00B5
A2345678
9ABCDEF0
A5A5A5A5
5A5A5A5A
FFFFFFFF
00000001
87654321
CAFEBABE
DEADBEAF
B16B00B5
A2345678
9ABCDEF0
A5A5A5A5
5A5A5A5A
FFFFFFFF
00000001
87654321
CAFEBABE
DEADBEAF
B16B00B5
A2345678
9ABCDEF0
A5A5A5A5
5A5A5A5A
FFFFFFFF
00000001
87654321
CAFEBABE
DEADBEAF
B16B00B5
A2345678
9ABCDEF0
A5A5A5A5
5A5A5A5A
FFFFFFFF
00000001
87654321
CAFEBABE
DEADBEAF
B16B00B5
A2345678
9ABCDEF0
A5A5A5A5
5A5A5A5A
FFFFFFFF
00000001
87654321
CAFEBABE
DEADBEAF
B16B00B5
A2345678
9ABCDEF0
A5A5A5A5
5A5A5A5A
FFFFFFFF
00000001
87654321
CAFEBABE
DEADBEAF
B16B00B5
A2345678
9ABCDEF0
A5A5A5A5
5A5A5A5A
FFFFFFFF
00000001
87654321
CAFEBABE
DEADBEAF
B16B00B5
A2345678
9ABCDEF0
A5A5A5A5
5A5A5A5A
FFFFFFFF
00000001
87654321
CAFEBABE
DEADBEAF
B16B00B5
A2345678
9ABCDEF0
A5A5A5A5
5A5A5A5A
FFFFFFFF
00000001
87654321
CAFEBABE
DEADBEAF
B16B00B5
A2345678
9ABCDEF0
A5A5A5A5
5A5A5A5A
FFFFFFFF
00000001
87654321
CAFEBABE
DEADBEAF
B16B00B5
A2345678
9ABCDEF0
A5A5A5A5
5A5A5A5A
FFFFFFFF
00000001
87654321
CAFEBABE
DEADBEAF
B16B00B5
A2345678
9ABCDEF0
A5A5A5A5
5A5A5A5A
FFFFFFFF
00000001
87654321
CAFEBABE
DEADBEAF
B16B00B5
A2345678
9ABCDEF0
A5A5A5A5
5A5A5A5A
FFFFFFFF
00000001
87654321
CAFEBABE
DEADBEAF
B16B00B5
A2345678
9ABCDEF0
A5A5A5A5
5A5A5A5A
FFFFFFFF
00000001
87654321
CAFEBABE
DEADBEAF
B16B00B5
A2345678
9ABCDEF0
A5A5A5A5
5A5A5A5A
FFFFFFFF
00000001
87654321
CAFEBABE
DEADBEAF
B16B00B5
A2345678
9ABCDEF0
A5A5A5A5
5A5A5A5A
FFFFFFFF
00000001
87654321
CAFEBABE
DEADBEAF
B16B00B5
A2345678
9ABCDEF0
A5A5A5A5
5A5A5A5A
FFFFFFFF
00000001
87654321
CAFEBABE
DEADBEAF
B16B00B5
A2345678
9ABCDEF0
A5A5A5A5
5A5A5A5A
FFFFFFFF
00000001
87654321
CAFEBABE
DEADBEAF
B16B00B5
A2345678
9ABCDEF0
A5A5A5A5
5A5A5A5A
FFFFFFFF
00000001
87654321
CAFEBABE
DEADBEAF
B16B00B5
A2345678
9ABCDEF0
A5A5A5A5
5A5A5A5A
FFFFFFFF
00000001
87654321
CAFEBABE
DEADBEAF
B16B00B5
A2345678
9ABCDEF0
A5A5A5A5
5A5A5A5A
FFFFFFFF
00000001
87654321
CAFEBABE
DEADBEAF
B16B00B5
A2345678
9ABCDEF0
A5A5A5A5
5A5A5A5A
FFFFFFFF
00000001
87654321
CAFEBABE
DEADBEAF
B16B00B5
A2345678
9ABCDEF0
A5A5A5A5
5A5A5A5A
FFFFFFFF
00000001
87654321
CAFEBABE
DEADBEAF
B16B00B5
A2345678
9ABCDEF0
A5A5A5A5
5A5A5A5A
FFFFFFFF
00000001
87654321
CAFEBABE
DEADBEAF
B16B00B5
A2345678
9ABCDEF0
A5A5A5A5
5A5A5A5A
FFFFFFFF
00000001
87654321
CAFEBABE
DEADBEAF
B16B00B5
A2345678
9ABCDEF0
A5A5A5A5
5A5A5A5A
FFFFFFFF
00000001
87654321
CAFEBABE
DEADBEAF
B16B00B5
A2345678
9ABCDEF0
A5A5A5A5
5A5A5A5A
FFFFFFFF
00000001
87654321
CAFEBABE
DEADBEAF
B16B00B5
A2345678
9ABCDEF0
A5A5A5A5
5A5A5A5A
FFFFFFFF
00000001
87654321
CAFEBABE
DEADBEAF
B16B00B5
A2345678
9ABCDEF0
A5A5A5A5
5A5A5A5A
FFFFFFFF
00000001
87654321
CAFEBABE
DEADBEAF
B16B00B5
A2345678
9ABCDEF0
A5A5A5A5
5A5A5A5A
FFFFFFFF
00000001
87654321
CAFEBABE
DEADBEAF
B16B00B5
A2345678
9ABCDEF0
A5A5A5A5
5A5A5A5A
FFFFFFFF
00000001
87654321
CAFEBABE
DEADBEAF
B16B00B5
A2345678
9ABCDEF0
A5A5A5A5
5A5A5A5A
FFFFFFFF
00000001
87654321
CAFEBABE
DEADBEAF
B16B00B5
A2345678
9ABCDEF0
A5A5A5A5
5A5A5A5A
FFFFFFFF
00000001
87654321
CAFEBABE
DEADBEAF
B16B00B5
A2345678
9ABCDEF0
A5A5A5A5
5A5A5A5A
FFFFFFFF
00000001
87654321
CAFEBABE
DEADBEAF
B16B00B5
A2345678
9ABCDEF0
A5A5A5A5
5A5A5A5A
FFFFFFFF
00000001
87654321
CAFEBABE
DEADBEAF
B16B00B5
A2345678
9ABCDEF0
A5A5A5A5
5A5A5A5A
FFFFFFFF
00000001
87654321
CAFEBABE
DEADBEAF
B16B00B5
A2345678
9ABCDEF0
A5A5A5A5
5A5A5A5A
FFFFFFFF
00000001
87654321
CAFEBABE
DEADBEAF
B16B00B5
A2345678
9ABCDEF0
A5A5A5A5
5A5A5A5A
FFFFFFFF
00000001
87654321
CAFEBABE
DEADBEAF
B16B00B5
A2345678
9ABCDEF0
A5A5A5A5
5A5A5A5A
FFFFFFFF
00000001
87654321
CAFEBABE
DEADBEAF
B16B00B5
A2345678
9ABCDEF0
A5A5A5A5
5A5A5A5A
FFFFFFFF
00000001
87654321
CAFEBABE
DEADBEAF
B16B00B5
A2345678
9ABCDEF0
A5A5A5A5
5A5A5A5A
FFFFFFFF
00000001
87654321
CAFEBABE
DEADBEAF
B16B00B5
A2345678
9ABCDEF0
A5A5A5A5
5A5A5A5A
FFFFFFFF
00000001
87654321
CAFEBABE
DEADBEAF
B16B00B5
A2345678
9ABCDEF0
A5A5A5A5
5A5A5A5A
FFFFFFFF
00000001
87654321
CAFEBABE
DEADBEAF
B16B00B5
A2345678
9ABCDEF0
A5A5A5A5
5A5A5A5A
FFFFFFFF
00000001
87654321
CAFEBABE
DEADBEAF
B16B00B5
A2345678
9ABCDEF0
A5A5A5A5
5A5A5A5A
FFFFFFFF
00000001
87654321
CAFEBABE
DEADBEAF
B16B00B5
A2345678
9ABCDEF0
A5A5A5A5
5A5A5A5A
FFFFFFFF
00000001
87654321
CAFEBABE
DEADBEAF
B16B00B5
A2345678
9ABCDEF0
A5A5A5A5
5A5A5A5A
FFFFFFFF
00000001
87654321
CAFEBABE
DEADBEAF
B16B00B5
A2345678
9ABCDEF0
A5A5A5A5
5A5A5A5A
FFFFFFFF
00000001
87654321
CAFEBABE
DEADBEAF
B16B00B5
A2345678
9ABCDEF0
A5A5A5A5
5A5A5A5A
FFFFFFFF
00000001
87654321
CAFEBABE
DEADBEAF
B16B00B5
A2345678
9ABCDEF0
A5A5A5A5
5A5A5A5A
FFFFFFFF
00000001
87654321
CAFEBABE
DEADBEAF
B16B00B5
A2345678
9ABCDEF0
A5A5A5A5
5A5A5A5A
FFFFFFFF
00000001
87654321
CAFEBABE
DEADBEAF
B16B00B5
A2345678
9ABCDEF0
A5A5A5A5
5A5A5A5A
FFFFFFFF
00000001
87654321
CAFEBABE
DEADBEAF
B16B00B5
A2345678
9ABCDEF0
A5A5A5A5
5A5A5A5A
FFFFFFFF
00000001
87654321
CAFEBABE
DEADBEAF
B16B00B5
A2345678
9ABCDEF0
A5A5A5A5
5A5A5A5A
FFFFFFFF
00000001
87654321
CAFEBABE
DEADBEAF
B16B00B5
A2345678
9ABCDEF0
A5A5A5A5
5A5A5A5A
FFFFFFFF
00000001
87654321
CAFEBABE
DEADBEAF
B16B00B5
A2345678
9ABCDEF0
A5A5A5A5
5A5A5A5A
FFFFFFFF
00000001
87654321
CAFEBABE
DEADBEAF
B16B00B5
A2345678
9ABCDEF0
A5A5A5A5
5A5A5A5A
FFFFFFFF
00000001
87654321
CAFEBABE
DEADBEAF
B16B00B5
A2345678
9ABCDEF0
A5A5A5A5
5A5A5A5A
FFFFFFFF
00000001
87654321
CAFEBABE
DEADBEAF
B16B00B5
A2345678
9ABCDEF0
A5A5A5A5
5A5A5A5A
FFFFFFFF
00000001
87654321
CAFEBABE
DEADBEAF
B16B00B5
A2345678
9ABCDEF0
A5A5A5A5
5A5A5A5A
FFFFFFFF
00000001
87654321
CAFEBABE
DEADBEAF
B16B00B5
A2345678
9ABCDEF0
A5A5A5A5
5A5A5A5A
FFFFFFFF
00000001
87654321
CAFEBABE
DEADBEAF
B16B00B5
A2345678
9ABCDEF0
A5A5A5A5
5A5A5A5A
FFFFFFFF
00000001
87654321
CAFEBABE
DEADBEAF
B16B00B5
A2345678
9ABCDEF0
A5A5A5A5
5A5A5A5A
FFFFFFFF
00000001
87654321
CAFEBABE
DEADBEAF
B16B00B5
A2345678
9ABCDEF0
A5A5A5A5
5A5A5A5A
FFFFFFFF
00000001
87654321
CAFEBABE
DEADBEAF
B16B00B5
A2345678
9ABCDEF0
A5A5A5A5
5A5A5A5A
FFFFFFFF
00000001
87654321
CAFEBABE
DEADBEAF
B16B00B5
A2345678
9ABCDEF0
A5A5A5A5
5A5A5A5A
FFFFFFFF
00000001
87654321
CAFEBABE
DEADBEAF
B16B00B5
A2345678
9ABCDEF0
A5A5A5A5
5A5A5A5A
FFFFFFFF
00000001
87654321
CAFEBABE
DEADBEAF
B16B00B5
A2345678
9ABCDEF0
A5A5A5A5
5A5A5A5A
FFFFFFFF
00000001
87654321
CAFEBABE
DEADBEAF
B16B00B5
A2345678
9ABCDEF0
A5A5A5A5
5A5A5A5A
FFFFFFFF
00000001
87654321
CAFEBABE
DEADBEAF
B16B00B5
A2345678
9ABCDEF0
A5A5A5A5
5A5A5A5A
FFFFFFFF
00000001
87654321
CAFEBABE
DEADBEAF
B16B00B5
A2345678
9ABCDEF0
A5A5A5A5
5A5A5A5A
FFFFFFFF
00000001
87654321
CAFEBABE
DEADBEAF
B16B00B5
A2345678
9ABCDEF0
A5A5A5A5
5A5A5A5A
FFFFFFFF
00000001
87654321
CAFEBABE
DEADBEAF
B16B00B5
A2345678
9ABCDEF0
A5A5A5A5
5A5A5A5A
FFFFFFFF
00000001
87654321
CAFEBABE
DEADBEAF
B16B00B5
A2345678
9ABCDEF0
A5A5A5A5
5A5A5A5A
FFFFFFFF
00000001
87654321
CAFEBABE
DEADBEAF
B16B00B5
A2345678
9ABCDEF0
A5A5A5A5
5A5A5A5A
FFFFFFFF
00000001
87654321
CAFEBABE
DEADBEAF
B16B00B5
A2345678
9ABCDEF0
A5A5A5A5
5A5A5A5A
FFFFFFFF
00000001
87654321
CAFEBABE
DEADBEAF
B16B00B5
A2345678
9ABCDEF0
A5A5A5A5
5A5A5A5A
FFFFFFFF
00000001
87654321
CAFEBABE
DEADBEAF
B16B00B5
A2345678
9ABCDEF0
A5A5A5A5
5A5A5A5A
FFFFFFFF
00000001
87654321
CAFEBABE
DEADBEAF
B16B00B5
A2345678
9ABCDEF0
A5A5A5A5
5A5A5A5A
FFFFFFFF
00000001
87654321
CAFEBABE
DEADBEAF
B16B00B5
A2345678
9ABCDEF0
A5A5A5A5
5A5A5A5A
FFFFFFFF
00000001
87654321
CAFEBABE
DEADBEAF
B16B00B5
A2345678
9ABCDEF0
A5A5A5A5
5A5A5A5A
FFFFFFFF
00000001
87654321
CAFEBABE
DEADBEAF
B16B00B5
A2345678
9ABCDEF0
A5A5A5A5
5A5A5A5A
FFFFFFFF
00000001
87654321
CAFEBABE
DEADBEAF
B16B00B5
A2345678
9ABCDEF0
A5A5A5A5
5A5A5A5A
FFFFFFFF
00000001
87654321
CAFEBABE
DEADBEAF
B16B00B5
A2345678
9ABCDEF0
A5A5A5A5
5A5A5A5A
FFFFFFFF
00000001
87654321
CAFEBABE
DEADBEAF
B16B00B5
A2345678
9ABCDEF0
A5A5A5A5
5A5A5A5A
FFFFFFFF
00000001
87654321
CAFEBABE
DEADBEAF
B16B00B5
A2345678
9ABCDEF0
A5A5A5A5
5A5A5A5A
FFFFFFFF
00000001
87654321
CAFEBABE
DEADBEAF
B16B00B5
A2345678
9ABCDEF0
A5A5A5A5
5A5A5A5A
FFFFFFFF
00000001
87654321
CAFEBABE
DEADBEAF
B16B00B5
A2345678
9ABCDEF0
A5A5A5A5
5A5A5A5A
FFFFFFFF
00000001
87654321
CAFEBABE
DEADBEAF
B16B00B5
A2345678
9ABCDEF0
A5A5A5A5
5A5A5A5A
FFFFFFFF
00000001
87654321
CAFEBABE
DEADBEAF
B16B00B5
A2345678
9ABCDEF0
A5A5A5A5
5A5A5A5A
FFFFFFFF
00000001
87654321
CAFEBABE
DEADBEAF
B16B00B5
A2345678
9ABCDEF0
A5A5A5A5
5A5A5A5A
FFFFFFFF
00000001
87654321
CAFEBABE
DEADBEAF
B16B00B5
A2345678
9ABCDEF0
A5A5A5A5
5A5A5A5A
FFFFFFFF
00000001
87654321
CAFEBABE
DEADBEAF
B16B00B5
A2345678
9ABCDEF0
A5A5A5A5
5A5A5A5A
FFFFFFFF
00000001
87654321
CAFEBABE
DEADBEAF
B16B00B5
A2345678
9ABCDEF0
A5A5A5A5
5A5A5A5A
FFFFFFFF
00000001
87654321
CAFEBABE
DEADBEAF
B16B00B5
A2345678
9ABCDEF0
A5A5A5A5
5A5A5A5A
FFFFFFFF
00000001
87654321
CAFEBABE
DEADBEAF
B16B00B5
A2345678
9ABCDEF0
A5A5A5A5
5A5A5A5A
FFFFFFFF
00000001
87654321
CAFEBABE
DEADBEAF
B16B00B5
A2345678
9ABCDEF0
A5A5A5A5
5A5A5A5A
FFFFFFFF
00000001
87654321
CAFEBABE
DEADBEAF
B16B00B5
A2345678
9ABCDEF0
A5A5A5A5
5A5A5A5A
FFFFFFFF
00000001
87654321
CAFEBABE
DEADBEAF
B16B00B5
A2345678
9ABCDEF0
A5A5A5A5
5A5A5A5A
FFFFFFFF
00000001
87654321
CAFEBABE
DEADBEAF
B16B00B5
A2345678
9ABCDEF0
A5A5A5A5
5A5A5A5A
FFFFFFFF
00000001
87654321
CAFEBABE
DEADBEAF
B16B00B5
A2345678
9ABCDEF0
A5A5A5A5
5A5A5A5A
FFFFFFFF
00000001
87654321
CAFEBABE
DEADBEAF
B16B00B5
A2345678
9ABCDEF0
A5A5A5A5
5A5A5A5A
FFFFFFFF
00000001
87654321
CAFEBABE
DEADBEAF
B16B00B5
A2345678
9ABCDEF0
A5A5A5A5
5A5A5A5A
FFFFFFFF
00000001
87654321
CAFEBABE
DEADBEAF
B16B00B5
A2345678
9ABCDEF0
A5A5A5A5
5A5A5A5A
FFFFFFFF
00000001
87654321
CAFEBABE
DEADBEAF
B16B00B5
A2345678
9ABCDEF0
A5A5A5A5
5A5A5A5A
FFFFFFFF
00000001
87654321
CAFEBABE
DEADBEAF
B16B00B5
A2345678
9ABCDEF0
A5A5A5A5
5A5A5A5A
FFFFFFFF
00000001
87654321
CAFEBABE
DEADBEAF
B16B00B5
A2345678
9ABCDEF0
A5A5A5A5
5A5A5A5A
FFFFFFFF
00000001
87654321
CAFEBABE
DEADBEAF
B16B00B5
A2345678
9ABCDEF0
A5A5A5A5
5A5A5A5A
FFFFFFFF
00000001
87654321
CAFEBABE
DEADBEAF
B16B00B5
A2345678
9ABCDEF0
A5A5A5A5
5A5A5A5A
FFFFFFFF
00000001
87654321
CAFEBABE
DEADBEAF
B16B00B5
A2345678
9ABCDEF0
A5A5A5A5
5A5A5A5A
FFFFFFFF
00000001
87654321
CAFEBABE
DEADBEAF
B16B00B5
A2345678
9ABCDEF0
A5A5A5A5
5A5A5A5A
FFFFFFFF
00000001
87654321
CAFEBABE
DEADBEAF
B16B00B5
A2345678
9ABCDEF0
A5A5A5A5
5A5A5A5A
FFFFFFFF
00000001
87654321
CAFEBABE
DEADBEAF
B16B00B5
A2345678
9ABCDEF0
A5A5A5A5
5A5A5A5A
FFFFFFFF
00000001
87654321
CAFEBABE
DEADBEAF
B16B00B5
A2345678
9ABCDEF0
A5A5A5A5
5A5A5A5A
FFFFFFFF
00000001
87654321
CAFEBABE
DEADBEAF
B16B00B5
A2345678
9ABCDEF0
A5A5A5A5
5A5A5A5A
FFFFFFFF
00000001
87654321
CAFEBABE
DEADBEAF
B16B00B5
A2345678
9ABCDEF0
A5A5A5A5
5A5A5A5A
FFFFFFFF
00000001
87654321
CAFEBABE
DEADBEAF
B16B00B5
A2345678
9ABCDEF0
A5A5A5A5
5A5A5A5A
FFFFFFFF
00000001
87654321
CAFEBABE
DEADBEAF
B16B00B5
A2345678
9ABCDEF0
A5A5A5A5
5A5A5A5A
FFFFFFFF
00000001
87654321
CAFEBABE
DEADBEAF
B16B00B5
A2345678
9ABCDEF0
A5A5A5A5
5A5A5A5A
FFFFFFFF
00000001
87654321
CAFEBABE
DEADBEAF
B16B00B5
A2345678
9ABCDEF0
A5A5A5A5
5A5A5A5A
FFFFFFFF
00000001
87654321
CAFEBABE
DEADBEAF
B16B00B5
A2345678
9ABCDEF0
A5A5A5A5
5A5A5A5A
FFFFFFFF
00000001
87654321
CAFEBABE
DEADBEAF
B16B00B5
A2345678
9ABCDEF0
A5A5A5A5
5A5A5A5A
FFFFFFFF
00000001
87654321
CAFEBABE
DEADBEAF
B16B00B5
A2345678
9ABCDEF0
A5A5A5A5
5A5A5A5A
FFFFFFFF
00000001
87654321
CAFEBABE
DEADBEAF
B16B00B5
A2345678
9ABCDEF0
A5A5A5A5
5A5A5A5A
FFFFFFFF
00000001
87654321
CAFEBABE
DEADBEAF
B16B00B5
A2345678
9ABCDEF0
A5A5A5A5
5A5A5A5A
FFFFFFFF
00000001
87654321
CAFEBABE
DEADBEAF
B16B00B5
A2345678
9ABCDEF0
A5A5A5A5
5A5A5A5A
FFFFFFFF
00000001
87654321
CAFEBABE
DEADBEAF
B16B00B5
A2345678
9ABCDEF0
A5A5A5A5
5A5A5A5A
FFFFFFFF
00000001
87654321
CAFEBABE
DEADBEAF
B16B00B5
A2345678
9ABCDEF0
A5A5A5A5
5A5A5A5A
FFFFFFFF
00000001
87654321
CAFEBABE
DEADBEAF
B16B00B5
A2345678
9ABCDEF0
A5A5A5A5
5A5A5A5A
FFFFFFFF
00000001
87654321
CAFEBABE
DEADBEAF
B16B00B5
A2345678
9ABCDEF0
A5A5A5A5
5A5A5A5A
FFFFFFFF
00000001
87654321
CAFEBABE
DEADBEAF
B16B00B5
A2345678
9ABCDEF0
A5A5A5A5
5A5A5A5A
FFFFFFFF
00000001
87654321
CAFEBABE
DEADBEAF
B16B00B5
A2345678
9ABCDEF0
A5A5A5A5
5A5A5A5A
FFFFFFFF
00000001
87654321
CAFEBABE
DEADBEAF
B16B00B5
A2345678
9ABCDEF0
A5A5A5A5
5A5A5A5A
FFFFFFFF
00000001
87654321
CAFEBABE
DEADBEAF
B16B00B5
A2345678
9ABCDEF0
A5A5A5A5
5A5A5A5A
FFFFFFFF
00000001
87654321
CAFEBABE
DEADBEAF
B16B00B5
A2345678
9ABCDEF0
A5A5A5A5
5A5A5A5A
FFFFFFFF
00000001
87654321
CAFEBABE
DEADBEAF
B16B00B5
A2345678
9ABCDEF0
A5A5A5A5
5A5A5A5A
FFFFFFFF
00000001
87654321
CAFEBABE
DEADBEAF
B16B00B5
A2345678
9ABCDEF0
A5A5A5A5
5A5A5A5A
FFFFFFFF
00000001
87654321
CAFEBABE
DEADBEAF
B16B00B5
A2345678
9ABCDEF0
A5A5A5A5
5A5A5A5A
FFFFFFFF
00000001
87654321
CAFEBABE
DEADBEAF
B16B00B5
A2345678
9ABCDEF0
A5A5A5A5
5A5A5A5A
FFFFFFFF
00000001
87654321
CAFEBABE
DEADBEAF
B16B00B5
A2345678
9ABCDEF0
A5A5A5A5
5A5A5A5A
FFFFFFFF
00000001
87654321
CAFEBABE
DEADBEAF
B16B00B5
A2345678
9ABCDEF0
A5A5A5A5
5A5A5A5A
FFFFFFFF
00000001
87654321
CAFEBABE
DEADBEAF
B16B00B5
A2345678
9ABCDEF0
A5A5A5A5
5A5A5A5A
FFFFFFFF
00000001
87654321
CAFEBABE
DEADBEAF
B16B00B5
A2345678
9ABCDEF0
A5A5A5A5
5A5A5A5A
FFFFFFFF
00000001
87654321
CAFEBABE
DEADBEAF
B16B00B5
A2345678
9ABCDEF0
A5A5A5A5
5A5A5A5A
FFFFFFFF
00000001
87654321
CAFEBABE
DEADBEAF
B16B00B5
A2345678
9ABCDEF0
A5A5A5A5
5A5A5A5A
FFFFFFFF
00000001
87654321
CAFEBABE
DEADBEAF
B16B00B5
A2345678
9ABCDEF0
A5A5A5A5
5A5A5A5A
FFFFFFFF
00000001
87654321
CAFEBABE
DEADBEAF
B16B00B5
A2345678
9ABCDEF0
A5A5A5A5
5A5A5A5A
FFFFFFFF
00000001
87654321
CAFEBABE
DEADBEAF
B16B00B5
A2345678
9ABCDEF0
A5A5A5A5
5A5A5A5A
FFFFFFFF
00000001
87654321
CAFEBABE
DEADBEAF
B16B00B5
A2345678
9ABCDEF0
A5A5A5A5
5A5A5A5A
FFFFFFFF
00000001
87654321
CAFEBABE
DEADBEAF
B16B00B5
A2345678
9ABCDEF0
A5A5A5A5
5A5A5A5A
FFFFFFFF
00000001
87654321
CAFEBABE
DEADBEAF
B16B00B5
A2345678
9ABCDEF0
A5A5A5A5
5A5A5A5A
FFFFFFFF
00000001
87654321
CAFEBABE
DEADBEAF
B16B00B5
A2345678
9ABCDEF0
A5A5A5A5
5A5A5A5A
FFFFFFFF
00000001
87654321
CAFEBABE
DEADBEAF
B16B00B5
A2345678
9ABCDEF0
A5A5A5A5
5A5A5A5A
FFFFFFFF
00000001
87654321
CAFEBABE
DEADBEAF
B16B00B5
A2345678
9ABCDEF0
A5A5A5A5
5A5A5A5A
FFFFFFFF
00000001
87654321
CAFEBABE
DEADBEAF
B16B00B5
A2345678
9ABCDEF0
A5A5A5A5
5A5A5A5A
FFFFFFFF
00000001
87654321
CAFEBABE
DEADBEAF
B16B00B5
A2345678
9ABCDEF0
A5A5A5A5
5A5A5A5A
FFFFFFFF
00000001
87654321
CAFEBABE
DEADBEAF
B16B00B5
A2345678
9ABCDEF0
A5A5A5A5
5A5A5A5A
FFFFFFFF
00000001
87654321
CAFEBABE
DEADBEAF
B16B00B5
A2345678
9ABCDEF0
A5A5A5A5
5A5A5A5A
FFFFFFFF
00000001
87654321
CAFEBABE
DEADBEAF
B16B00B5
A2345678
9ABCDEF0
A5A5A5A5
5A5A5A5A
FFFFFFFF
00000001
87654321
CAFEBABE
DEADBEAF
B16B00B5
A2345678
9ABCDEF0
A5A5A5A5
5A5A5A5A
FFFFFFFF
00000001
87654321
CAFEBABE
DEADBEAF
B16B00B5
A2345678
9ABCDEF0
A5A5A5A5
5A5A5A5A
FFFFFFFF
00000001
87654321
CAFEBABE
DEADBEAF
B16B00B5
A2345678
9ABCDEF0
A5A5A5A5
5A5A5A5A
FFFFFFFF
00000001
87654321
CAFEBABE
DEADBEAF
B16B00B5
A2345678
9ABCDEF0
A5A5A5A5
5A5A5A5A
FFFFFFFF
00000001
87654321
CAFEBABE
DEADBEAF
B16B00B5
A2345678
9ABCDEF0
A5A5A5A5
5A5A5A5A
FFFFFFFF
00000001
87654321
CAFEBABE
DEADBEAF
B16B00B5
A2345678
9ABCDEF0
A5A5A5A5
5A5A5A5A
FFFFFFFF
00000001
87654321
CAFEBABE
DEADBEAF
B16B00B5
A2345678
9ABCDEF0
A5A5A5A5
5A5A5A5A
FFFFFFFF
00000001
87654321
CAFEBABE
DEADBEAF
B16B00B5
A2345678
9ABCDEF0
A5A5A5A5
5A5A5A5A
FFFFFFFF
00000001
87654321
CAFEBABE
DEADBEAF
B16B00B5
A2345678
9ABCDEF0
A5A5A5A5
5A5A5A5A
FFFFFFFF
00000001
87654321
CAFEBABE
DEADBEAF
B16B00B5
A2345678
9ABCDEF0
A5A5A5A5
5A5A5A5A
FFFFFFFF
00000001
87654321
CAFEBABE
DEADBEAF
B16B00B5
A2345678
9ABCDEF0
A5A5A5A5
5A5A5A5A
FFFFFFFF
00000001
87654321
CAFEBABE
DEADBEAF
B16B00B5
A2345678
9ABCDEF0
A5A5A5A5
5A5A5A5A
FFFFFFFF
00000001
87654321
CAFEBABE
DEADBEAF
B16B00B5
A2345678
9ABCDEF0
A5A5A5A5
5A5A5A5A
FFFFFFFF
00000001
87654321
CAFEBABE
DEADBEAF
B16B00B5
A2345678
9ABCDEF0
A5A5A5A5
5A5A5A5A
FFFFFFFF
00000001
87654321
CAFEBABE
DEADBEAF
B16B00B5
A2345678
9ABCDEF0
A5A5A5A5
5A5A5A5A
FFFFFFFF
00000001
87654321
CAFEBABE
DEADBEAF
B16B00B5
A2345678
9ABCDEF0
A5A5A5A5
5A5A5A5A
FFFFFFFF
00000001
87654321
CAFEBABE
DEADBEAF
B16B00B5
A2345678
9ABCDEF0
A5A5A5A5
5A5A5A5A
FFFFFFFF
00000001
87654321
CAFEBABE
DEADBEAF
B16B00B5
A2345678
9ABCDEF0
A5A5A5A5
5A5A5A5A
FFFFFFFF
00000001
87654321
CAFEBABE
DEADBEAF
B16B00B5
A2345678
9ABCDEF0
A5A5A5A5
5A5A5A5A
FFFFFFFF
00000001
87654321
CAFEBABE
DEADBEAF
B16B00B5
A2345678
9ABCDEF0
A5A5A5A5
5A5A5A5A
FFFFFFFF
00000001
87654321
CAFEBABE
DEADBEAF
B16B00B5
A2345678
9ABCDEF0
A5A5A5A5
5A5A5A5A
FFFFFFFF
00000001
87654321
CAFEBABE
DEADBEAF
B16B00B5
A2345678
9ABCDEF0
A5A5A5A5
5A5A5A5A
FFFFFFFF
00000001
87654321
CAFEBABE
DEADBEAF
B16B00B5
A2345678
9ABCDEF0
A5A5A5A5
5A5A5A5A
FFFFFFFF
00000001
87654321
CAFEBABE
DEADBEAF
B16B00B5
A2345678
9ABCDEF0
A5A5A5A5
5A5A5A5A
FFFFFFFF
00000001
87654321
CAFEBABE
DEADBEAF
B16B00B5
A2345678
9ABCDEF0
A5A5A5A5
5A5A5A5A
FFFFFFFF
00000001
87654321
CAFEBABE
DEADBEAF
B16B00B5
A2345678
9ABCDEF0
A5A5A5A5
5A5A5A5A
FFFFFFFF
00000001
87654321
CAFEBABE
DEADBEAF
B16B00B5
A2345678
9ABCDEF0
A5A5A5A5
5A5A5A5A
FFFFFFFF
00000001
87654321
CAFEBABE
DEADBEAF
B16B00B5
A2345678
9ABCDEF0
A5A5A5A5
5A5A5A5A
FFFFFFFF
00000001
87654321
CAFEBABE
DEADBEAF
B16B00B5
A2345678
9ABCDEF0
A5A5A5A5
5A5A5A5A
FFFFFFFF
00000001
87654321
CAFEBABE
DEADBEAF
B16B00B5
A2345678
9ABCDEF0
A5A5A5A5
5A5A5A5A
FFFFFFFF
00000001
87654321
CAFEBABE
DEADBEAF
B16B00B5
A2345678
9ABCDEF0
A5A5A5A5
5A5A5A5A
FFFFFFFF
00000001
87654321
CAFEBABE
DEADBEAF
B16B00B5
A2345678
9ABCDEF0
A5A5A5A5
5A5A5A5A
FFFFFFFF
00000001
87654321
CAFEBABE
DEADBEAF
B16B00B5
A2345678
9ABCDEF0
A5A5A5A5
5A5A5A5A
FFFFFFFF
00000001
87654321
CAFEBABE
DEADBEAF
B16B00B5
A2345678
9ABCDEF0
A5A5A5A5
5A5A5A5A
FFFFFFFF
00000001
87654321
CAFEBABE
DEADBEAF
B16B00B5
A2345678
9ABCDEF0
A5A5A5A5
5A5A5A5A
FFFFFFFF
00000001
87654321
CAFEBABE
DEADBEAF
B16B00B5
A2345678
9ABCDEF0
A5A5A5A5
5A5A5A5A
FFFFFFFF
00000001
87654321
CAFEBABE
DEADBEAF
B16B00B5
A2345678
9ABCDEF0
A5A5A5A5
5A5A5A5A
FFFFFFFF
00000001
87654321
CAFEBABE
DEADBEAF
B16B00B5
A2345678
9ABCDEF0
A5A5A5A5
5A5A5A5A
FFFFFFFF
00000001
87654321
CAFEBABE
DEADBEAF
B16B00B5
A2345678
9ABCDEF0
A5A5A5A5
5A5A5A5A
FFFFFFFF
00000001
87654321
CAFEBABE
DEADBEAF
B16B00B5
A2345678
9ABCDEF0
A5A5A5A5
5A5A5A5A
FFFFFFFF
00000001
87654321
CAFEBABE
DEADBEAF
B16B00B5
A2345678
9ABCDEF0
A5A5A5A5
5A5A5A5A
FFFFFFFF
00000001
87654321
CAFEBABE
DEADBEAF
B16B00B5
A2345678
9ABCDEF0
A5A5A5A5
5A5A5A5A
FFFFFFFF
00000001
87654321
CAFEBABE
DEADBEAF
B16B00B5
A2345678
9ABCDEF0
A5A5A5A5
5A5A5A5A
FFFFFFFF
00000001
87654321
CAFEBABE
DEADBEAF
B16B00B5
A2345678
9ABCDEF0
A5A5A5A5
5A5A5A5A
FFFFFFFF
00000001
87654321
CAFEBABE
DEADBEAF
B16B00B5
A2345678
9ABCDEF0
A5A5A5A5
5A5A5A5A
FFFFFFFF
00000001
87654321
CAFEBABE
DEADBEAF
B16B00B5
A2345678
9ABCDEF0
A5A5A5A5
5A5A5A5A
FFFFFFFF
00000001
87654321
CAFEBABE
DEADBEAF
B16B00B5
A2345678
9ABCDEF0
A5A5A5A5
5A5A5A5A
FFFFFFFF
00000001
87654321
CAFEBABE
DEADBEAF
B16B00B5
A2345678
9ABCDEF0
A5A5A5A5
5A5A5A5A
FFFFFFFF
00000001
87654321
CAFEBABE
DEADBEAF
B16B00B5
A2345678
9ABCDEF0
A5A5A5A5
5A5A5A5A
FFFFFFFF
00000001
87654321
CAFEBABE
DEADBEAF
B16B00B5
A2345678
9ABCDEF0
A5A5A5A5
5A5A5A5A
FFFFFFFF
00000001
87654321
CAFEBABE
DEADBEAF
B16B00B5
A2345678
9ABCDEF0
A5A5A5A5
5A5A5A5A
FFFFFFFF
00000001
87654321
CAFEBABE
DEADBEAF
B16B00B5
A2345678
9ABCDEF0
A5A5A5A5
5A5A5A5A
FFFFFFFF
00000001
87654321
CAFEBABE
DEADBEAF
B16B00B5
A2345678
9ABCDEF0
A5A5A5A5
5A5A5A5A
FFFFFFFF
00000001
87654321
CAFEBABE
DEADBEAF
B16B00B5
A2345678
9ABCDEF0
A5A5A5A5
5A5A5A5A
FFFFFFFF
00000001
87654321
CAFEBABE
DEADBEAF
B16B00B5
A2345678
9ABCDEF0
A5A5A5A5
5A5A5A5A
FFFFFFFF
00000001
87654321
CAFEBABE
DEADBEAF
B16B00B5
A2345678
9ABCDEF0
A5A5A5A5
5A5A5A5A
FFFFFFFF
00000001
87654321
CAFEBABE
DEADBEAF
B16B00B5
A2345678
9ABCDEF0
A5A5A5A5
5A5A5A5A
FFFFFFFF
00000001
87654321
CAFEBABE
DEADBEAF
B16B00B5
A2345678
9ABCDEF0
A5A5A5A5
5A5A5A5A
FFFFFFFF
00000001
87654321
CAFEBABE
DEADBEAF
B16B00B5
A2345678
9ABCDEF0
A5A5A5A5
5A5A5A5A
FFFFFFFF
00000001
87654321
CAFEBABE
DEADBEAF
B16B00B5
A2345678
9ABCDEF0
A5A5A5A5
5A5A5A5A
FFFFFFFF
00000001
87654321
CAFEBABE
DEADBEAF
B16B00B5
A2345678
9ABCDEF0
A5A5A5A5
5A5A5A5A
FFFFFFFF
00000001
87654321
CAFEBABE
DEADBEAF
B16B00B5
A2345678
9ABCDEF0
A5A5A5A5
5A5A5A5A
FFFFFFFF
00000001
87654321
CAFEBABE
DEADBEAF
B16B00B5
A2345678
9ABCDEF0
A5A5A5A5
5A5A5A5A
FFFFFFFF
00000001
87654321
CAFEBABE
DEADBEAF
B16B00B5
A2345678
9ABCDEF0
A5A5A5A5
5A5A5A5A
FFFFFFFF
00000001
87654321
CAFEBABE
DEADBEAF
B16B00B5
A2345678
9ABCDEF0
A5A5A5A5
5A5A5A5A
FFFFFFFF
00000001
87654321
CAFEBABE
DEADBEAF
B16B00B5
A2345678
9ABCDEF0
A5A5A5A5
5A5A5A5A
FFFFFFFF
00000001
87654321
CAFEBABE
DEADBEAF
B16B00B5
A2345678
9ABCDEF0
A5A5A5A5
5A5A5A5A
FFFFFFFF
00000001
87654321
CAFEBABE
DEADBEAF
B16B00B5
A2345678
9ABCDEF0
A5A5A5A5
5A5A5A5A
FFFFFFFF
00000001
87654321
CAFEBABE
DEADBEAF
B16B00B5
A2345678
9ABCDEF0
A5A5A5A5
5A5A5A5A
FFFFFFFF
00000001
87654321
CAFEBABE
DEADBEAF
B16B00B5
A2345678
9ABCDEF0
A5A5A5A5
5A5A5A5A
FFFFFFFF
00000001
87654321
CAFEBABE
DEADBEAF
B16B00B5
A2345678
9ABCDEF0
A5A5A5A5
5A5A5A5A
FFFFFFFF
00000001
87654321
CAFEBABE
DEADBEAF
B16B00B5
A2345678
9ABCDEF0
A5A5A5A5
5A5A5A5A
FFFFFFFF
00000001
87654321
CAFEBABE
DEADBEAF
B16B00B5
A2345678
9ABCDEF0
A5A5A5A5
5A5A5A5A
FFFFFFFF
00000001
87654321
CAFEBABE
DEADBEAF
B16B00B5
A2345678
9ABCDEF0
A5A5A5A5
5A5A5A5A
FFFFFFFF
00000001
87654321
CAFEBABE
DEADBEAF
B16B00B5
A2345678
9ABCDEF0
A5A5A5A5
5A5A5A5A
FFFFFFFF
00000001
87654321
CAFEBABE
DEADBEAF
B16B00B5
A2345678
9ABCDEF0
A5A5A5A5
5A5A5A5A
FFFFFFFF
00000001
87654321
CAFEBABE
DEADBEAF
B16B00B5
A2345678
9ABCDEF0
A5A5A5A5
5A5A5A5A
FFFFFFFF
00000001
87654321
CAFEBABE
DEADBEAF
B16B00B5
A2345678
9ABCDEF0
A5A5A5A5
5A5A5A5A
FFFFFFFF
00000001
87654321
CAFEBABE
DEADBEAF
B16B00B5
A2345678
9ABCDEF0
A5A5A5A5
5A5A5A5A
FFFFFFFF
00000001
87654321
CAFEBABE
DEADBEAF
B16B00B5
A2345678
9ABCDEF0
A5A5A5A5
5A5A5A5A
FFFFFFFF
00000001
87654321
CAFEBABE
DEADBEAF
B16B00B5
A2345678
9ABCDEF0
A5A5A5A5
5A5A5A5A
FFFFFFFF
00000001
87654321
CAFEBABE
DEADBEAF
B16B00B5
A2345678
9ABCDEF0
A5A5A5A5
5A5A5A5A
FFFFFFFF
00000001
87654321
CAFEBABE
DEADBEAF
B16B00B5
A2345678
9ABCDEF0
A5A5A5A5
5A5A5A5A
FFFFFFFF
00000001
87654321
CAFEBABE
DEADBEAF
B16B00B5
A2345678
9ABCDEF0
A5A5A5A5
5A5A5A5A
FFFFFFFF
00000001
87654321
CAFEBABE
DEADBEAF
B16B00B5
A2345678
9ABCDEF0
A5A5A5A5
5A5A5A5A
FFFFFFFF
00000001
87654321
CAFEBABE
DEADBEAF
B16B00B5
A2345678
9ABCDEF0
A5A5A5A5
5A5A5A5A
FFFFFFFF
00000001
87654321
CAFEBABE
DEADBEAF
B16B00B5
A2345678
9ABCDEF0
A5A5A5A5
5A5A5A5A
FFFFFFFF
00000001
87654321
CAFEBABE
DEADBEAF
B16B00B5
A2345678
9ABCDEF0
A5A5A5A5
5A5A5A5A
FFFFFFFF
00000001
87654321
CAFEBABE
DEADBEAF
B16B00B5
A2345678
9ABCDEF0
A5A5A5A5
5A5A5A5A
FFFFFFFF
00000001
87654321
CAFEBABE
DEADBEAF
B16B00B5
A2345678
9ABCDEF0
A5A5A5A5
5A5A5A5A
FFFFFFFF
00000001
87654321
CAFEBABE
DEADBEAF
B16B00B5
A2345678
9ABCDEF0
A5A5A5A5
5A5A5A5A
FFFFFFFF
00000001
87654321
CAFEBABE
DEADBEAF
B16B00B5
A2345678
9ABCDEF0
A5A5A5A5
5A5A5A5A
FFFFFFFF
00000001
87654321
CAFEBABE
DEADBEAF
B16B00B5
A2345678
9ABCDEF0
A5A5A5A5
5A5A5A5A
FFFFFFFF
00000001
87654321
CAFEBABE
DEADBEAF
B16B00B5
A2345678
9ABCDEF0
A5A5A5A5
5A5A5A5A
FFFFFFFF
00000001
87654321
CAFEBABE
DEADBEAF
B16B00B5
A2345678
9ABCDEF0
A5A5A5A5
5A5A5A5A
FFFFFFFF
00000001
87654321
CAFEBABE
DEADBEAF
B16B00B5
A2345678
9ABCDEF0
A5A5A5A5
5A5A5A5A
FFFFFFFF
00000001
87654321
CAFEBABE
DEADBEAF
B16B00B5
A2345678
9ABCDEF0
A5A5A5A5
5A5A5A5A
FFFFFFFF
00000001
87654321
CAFEBABE
DEADBEAF
B16B00B5
A2345678
9ABCDEF0
A5A5A5A5
5A5A5A5A
FFFFFFFF
00000001
87654321
CAFEBABE
DEADBEAF
B16B00B5
A2345678
9ABCDEF0
A5A5A5A5
5A5A5A5A
FFFFFFFF
00000001
87654321
CAFEBABE
DEADBEAF
B16B00B5
A2345678
9ABCDEF0
A5A5A5A5
5A5A5A5A
FFFFFFFF
00000001
87654321
CAFEBABE
DEADBEAF
B16B00B5
A2345678
9ABCDEF0
A5A5A5A5
5A5A5A5A
FFFFFFFF
00000001
87654321
CAFEBABE
DEADBEAF
B16B00B5
A2345678
9ABCDEF0
A5A5A5A5
5A5A5A5A
FFFFFFFF
00000001
87654321
CAFEBABE
DEADBEAF
B16B00B5
A2345678
9ABCDEF0
A5A5A5A5
5A5A5A5A
FFFFFFFF
00000001
87654321
CAFEBABE
DEADBEAF
B16B00B5
A2345678
9ABCDEF0
A5A5A5A5
5A5A5A5A
FFFFFFFF
00000001
87654321
CAFEBABE
DEADBEAF
B16B00B5
A2345678
9ABCDEF0
A5A5A5A5
5A5A5A5A
FFFFFFFF
00000001
87654321
CAFEBABE
DEADBEAF
B16B00B5
A2345678
9ABCDEF0
A5A5A5A5
5A5A5A5A
FFFFFFFF
00000001
87654321
CAFEBABE
DEADBEAF
B16B00B5
A2345678
9ABCDEF0
A5A5A5A5
5A5A5A5A
FFFFFFFF
00000001
87654321
CAFEBABE
DEADBEAF
B16B00B5
A2345678
9ABCDEF0
A5A5A5A5
5A5A5A5A
FFFFFFFF
00000001
87654321
CAFEBABE
DEADBEAF
B16B00B5
A2345678
9ABCDEF0
A5A5A5A5
5A5A5A5A
FFFFFFFF
00000001
87654321
CAFEBABE
DEADBEAF
B16B00B5
A2345678
9ABCDEF0
A5A5A5A5
5A5A5A5A
FFFFFFFF
00000001
87654321
CAFEBABE
DEADBEAF
B16B00B5
A2345678
9ABCDEF0
A5A5A5A5
5A5A5A5A
FFFFFFFF
00000001
87654321
CAFEBABE
DEADBEAF
B16B00B5
A2345678
9ABCDEF0
A5A5A5A5
5A5A5A5A
FFFFFFFF
00000001
87654321
CAFEBABE
DEADBEAF
B16B00B5
A2345678
9ABCDEF0
A5A5A5A5
5A5A5A5A
FFFFFFFF
00000001
87654321
CAFEBABE
DEADBEAF
B16B00B5
A2345678
9ABCDEF0
A5A5A5A5
5A5A5A5A
FFFFFFFF
00000001
87654321
CAFEBABE
DEADBEAF
B16B00B5
A2345678
9ABCDEF0
A5A5A5A5
5A5A5A5A
FFFFFFFF
00000001
87654321
CAFEBABE
DEADBEAF
B16B00B5
A2345678
9ABCDEF0
A5A5A5A5
5A5A5A5A
FFFFFFFF
00000001
87654321
CAFEBABE
DEADBEAF
B16B00B5
A2345678
9ABCDEF0
A5A5A5A5
5A5A5A5A
FFFFFFFF
00000001
87654321
CAFEBABE
DEADBEAF
B16B00B5
A2345678
9ABCDEF0
A5A5A5A5
5A5A5A5A
FFFFFFFF
00000001
87654321
CAFEBABE
DEADBEAF
B16B00B5
A2345678
9ABCDEF0
A5A5A5A5
5A5A5A5A
FFFFFFFF
00000001
87654321
CAFEBABE
DEADBEAF
B16B00B5
A2345678
9ABCDEF0
A5A5A5A5
5A5A5A5A
FFFFFFFF
00000001
87654321
CAFEBABE
DEADBEAF
B16B00B5
A2345678
9ABCDEF0
A5A5A5A5
5A5A5A5A
FFFFFFFF
00000001
87654321
CAFEBABE
DEADBEAF
B16B00B5
A2345678
9ABCDEF0
A5A5A5A5
5A5A5A5A
FFFFFFFF
00000001
87654321
CAFEBABE
DEADBEAF
B16B00B5
A2345678
9ABCDEF0
A5A5A5A5
5A5A5A5A
FFFFFFFF
00000001
87654321
CAFEBABE
DEADBEAF
B16B00B5
A2345678
9ABCDEF0
A5A5A5A5
5A5A5A5A
FFFFFFFF
00000001
87654321
CAFEBABE
DEADBEAF
B16B00B5
A2345678
9ABCDEF0
A5A5A5A5
5A5A5A5A
FFFFFFFF
00000001
87654321
CAFEBABE
DEADBEAF
B16B00B5
A2345678
9ABCDEF0
A5A5A5A5
5A5A5A5A
FFFFFFFF
00000001
87654321
CAFEBABE
DEADBEAF
B16B00B5
A2345678
9ABCDEF0
A5A5A5A5
5A5A5A5A
FFFFFFFF
00000001
87654321
CAFEBABE
DEADBEAF
B16B00B5
A2345678
9ABCDEF0
A5A5A5A5
5A5A5A5A
FFFFFFFF
00000001
87654321
CAFEBABE
DEADBEAF
B16B00B5
A2345678
9ABCDEF0
A5A5A5A5
5A5A5A5A
FFFFFFFF
00000001
87654321
CAFEBABE
DEADBEAF
B16B00B5
A2345678
9ABCDEF0
A5A5A5A5
5A5A5A5A
FFFFFFFF
00000001
87654321
CAFEBABE
DEADBEAF
B16B00B5
A2345678
9ABCDEF0
A5A5A5A5
5A5A5A5A
FFFFFFFF
00000001
87654321
CAFEBABE
DEADBEAF
B16B00B5
A2345678
9ABCDEF0
A5A5A5A5
5A5A5A5A
FFFFFFFF
00000001
87654321
CAFEBABE
DEADBEAF
B16B00B5
A2345678
9ABCDEF0
A5A5A5A5
5A5A5A5A
FFFFFFFF
00000001
87654321
CAFEBABE
DEADBEAF
B16B00B5
A2345678
9ABCDEF0
A5A5A5A5
5A5A5A5A
FFFFFFFF
00000001
87654321
CAFEBABE
DEADBEAF
B16B00B5
A2345678
9ABCDEF0
A5A5A5A5
5A5A5A5A
FFFFFFFF
00000001
87654321
CAFEBABE
DEADBEAF
B16B00B5
A2345678
9ABCDEF0
A5A5A5A5
5A5A5A5A
FFFFFFFF
00000001
87654321
CAFEBABE
DEADBEAF
B16B00B5
A2345678
9ABCDEF0
A5A5A5A5
5A5A5A5A
FFFFFFFF
00000001
87654321
CAFEBABE
DEADBEAF
B16B00B5
A2345678
9ABCDEF0
A5A5A5A5
5A5A5A5A
FFFFFFFF
00000001
87654321
CAFEBABE
DEADBEAF
B16B00B5
A2345678
9ABCDEF0
A5A5A5A5
5A5A5A5A
FFFFFFFF
00000001
87654321
CAFEBABE
DEADBEAF
B16B00B5
A2345678
9ABCDEF0
A5A5A5A5
5A5A5A5A
FFFFFFFF
00000001
87654321
CAFEBABE
DEADBEAF
B16B00B5
A2345678
9ABCDEF0
A5A5A5A5
5A5A5A5A
FFFFFFFF
00000001
87654321
CAFEBABE
DEADBEAF
B16B00B5
A2345678
9ABCDEF0
A5A5A5A5
5A5A5A5A
FFFFFFFF
00000001
87654321
CAFEBABE
DEADBEAF
B16B00B5
A2345678
9ABCDEF0
A5A5A5A5
5A5A5A5A
FFFFFFFF
00000001
87654321
CAFEBABE
DEADBEAF
B16B00B5
A2345678
9ABCDEF0
A5A5A5A5
5A5A5A5A
FFFFFFFF
00000001
87654321
CAFEBABE
DEADBEAF
B16B00B5
A2345678
9ABCDEF0
A5A5A5A5
5A5A5A5A
FFFFFFFF
00000001
87654321
CAFEBABE
DEADBEAF
B16B00B5
A2345678
9ABCDEF0
A5A5A5A5
5A5A5A5A
FFFFFFFF
00000001
87654321
CAFEBABE
DEADBEAF
B16B00B5
A2345678
9ABCDEF0
A5A5A5A5
5A5A5A5A
FFFFFFFF
00000001
87654321
CAFEBABE
DEADBEAF
B16B00B5
A2345678
9ABCDEF0
A5A5A5A5
5A5A5A5A
FFFFFFFF
00000001
87654321
CAFEBABE
DEADBEAF
B16B00B5
A2345678
9ABCDEF0
A5A5A5A5
5A5A5A5A
FFFFFFFF
00000001
87654321
CAFEBABE
DEADBEAF
B16B00B5
A2345678
9ABCDEF0
A5A5A5A5
5A5A5A5A
FFFFFFFF
00000001
87654321
CAFEBABE
DEADBEAF
B16B00B5
A2345678
9ABCDEF0
A5A5A5A5
5A5A5A5A
FFFFFFFF
00000001
87654321
CAFEBABE
DEADBEAF
B16B00B5
A2345678
9ABCDEF0
A5A5A5A5
5A5A5A5A
FFFFFFFF
00000001
87654321
CAFEBABE
DEADBEAF
B16B00B5
A2345678
9ABCDEF0
A5A5A5A5
5A5A5A5A
FFFFFFFF
00000001
87654321
CAFEBABE
DEADBEAF
B16B00B5
A2345678
9ABCDEF0
A5A5A5A5
5A5A5A5A
FFFFFFFF
00000001
87654321
CAFEBABE
DEADBEAF
B16B00B5
A2345678
9ABCDEF0
A5A5A5A5
5A5A5A5A
FFFFFFFF
00000001
87654321
CAFEBABE
DEADBEAF
B16B00B5
A2345678
9ABCDEF0
A5A5A5A5
5A5A5A5A
FFFFFFFF
00000001
87654321
CAFEBABE
DEADBEAF
B16B00B5
A2345678
9ABCDEF0
A5A5A5A5
5A5A5A5A
FFFFFFFF
00000001
87654321
CAFEBABE
DEADBEAF
B16B00B5
A2345678
9ABCDEF0
A5A5A5A5
5A5A5A5A
FFFFFFFF
00000001
87654321
CAFEBABE
DEADBEAF
B16B00B5
A2345678
9ABCDEF0
A5A5A5A5
5A5A5A5A
FFFFFFFF
00000001
87654321
CAFEBABE
DEADBEAF
B16B00B5
A2345678
9ABCDEF0
A5A5A5A5
5A5A5A5A
FFFFFFFF
00000001
87654321
CAFEBABE
DEADBEAF
B16B00B5
A2345678
9ABCDEF0
A5A5A5A5
5A5A5A5A
FFFFFFFF
00000001
87654321
CAFEBABE
DEADBEAF
B16B00B5
A2345678
9ABCDEF0
A5A5A5A5
5A5A5A5A
FFFFFFFF
00000001
87654321
CAFEBABE
DEADBEAF
B16B00B5
A2345678
9ABCDEF0
A5A5A5A5
5A5A5A5A
FFFFFFFF
00000001
87654321
CAFEBABE
DEADBEAF
B16B00B5
A2345678
9ABCDEF0
A5A5A5A5
5A5A5A5A
FFFFFFFF
00000001
87654321
CAFEBABE
DEADBEAF
B16B00B5
A2345678
9ABCDEF0
A5A5A5A5
5A5A5A5A
FFFFFFFF
00000001
87654321
CAFEBABE
DEADBEAF
B16B00B5
A2345678
9ABCDEF0
A5A5A5A5
5A5A5A5A
FFFFFFFF
00000001
87654321
CAFEBABE
DEADBEAF
B16B00B5
A2345678
9ABCDEF0
A5A5A5A5
5A5A5A5A
FFFFFFFF
00000001
87654321
CAFEBABE
DEADBEAF
B16B00B5
A2345678
9ABCDEF0
A5A5A5A5
5A5A5A5A
FFFFFFFF
00000001
87654321
CAFEBABE
DEADBEAF
B16B00B5
A2345678
9ABCDEF0
A5A5A5A5
5A5A5A5A
FFFFFFFF
00000001
87654321
CAFEBABE
DEADBEAF
B16B00B5
A2345678
9ABCDEF0
A5A5A5A5
5A5A5A5A
FFFFFFFF
00000001
87654321
CAFEBABE
DEADBEAF
B16B00B5
A2345678
9ABCDEF0
A5A5A5A5
5A5A5A5A
FFFFFFFF
00000001
87654321
CAFEBABE
DEADBEAF
B16B00B5
A2345678
9ABCDEF0
A5A5A5A5
5A5A5A5A
FFFFFFFF
00000001
87654321
CAFEBABE
DEADBEAF
B16B00B5
A2345678
9ABCDEF0
A5A5A5A5
5A5A5A5A
FFFFFFFF
00000001
87654321
CAFEBABE
DEADBEAF
B16B00B5
A2345678
9ABCDEF0
A5A5A5A5
5A5A5A5A
FFFFFFFF
00000001
87654321
CAFEBABE
DEADBEAF
B16B00B5
A2345678
9ABCDEF0
A5A5A5A5
5A5A5A5A
FFFFFFFF
00000001
87654321
CAFEBABE
DEADBEAF
B16B00B5
A2345678
9ABCDEF0
A5A5A5A5
5A5A5A5A
FFFFFFFF
00000001
87654321
CAFEBABE
DEADBEAF
B16B00B5
A2345678
9ABCDEF0
A5A5A5A5
5A5A5A5A
FFFFFFFF
00000001
87654321
CAFEBABE
DEADBEAF
B16B00B5
A2345678
9ABCDEF0
A5A5A5A5
5A5A5A5A
FFFFFFFF
00000001
87654321
CAFEBABE
DEADBEAF
B16B00B5
A2345678
9ABCDEF0
A5A5A5A5
5A5A5A5A
FFFFFFFF
00000001
87654321
CAFEBABE
DEADBEAF
B16B00B5
A2345678
9ABCDEF0
A5A5A5A5
5A5A5A5A
FFFFFFFF
00000001
87654321
CAFEBABE
DEADBEAF
B16B00B5
A2345678
9ABCDEF0
A5A5A5A5
5A5A5A5A
FFFFFFFF
00000001
87654321
CAFEBABE
DEADBEAF
B16B00B5
A2345678
9ABCDEF0
A5A5A5A5
5A5A5A5A
FFFFFFFF
00000001
87654321
CAFEBABE
DEADBEAF
B16B00B5
A2345678
9ABCDEF0
A5A5A5A5
5A5A5A5A
FFFFFFFF
00000001
87654321
CAFEBABE
DEADBEAF
B16B00B5
A2345678
9ABCDEF0
A5A5A5A5
5A5A5A5A
FFFFFFFF
00000001
87654321
CAFEBABE
DEADBEAF
B16B00B5
A2345678
9ABCDEF0
A5A5A5A5
5A5A5A5A
FFFFFFFF
00000001
87654321
CAFEBABE
DEADBEAF
B16B00B5
A2345678
9ABCDEF0
A5A5A5A5
5A5A5A5A
FFFFFFFF
00000001
87654321
CAFEBABE
DEADBEAF
B16B00B5
A2345678
9ABCDEF0
A5A5A5A5
5A5A5A5A
FFFFFFFF
00000001
87654321
CAFEBABE
DEADBEAF
B16B00B5
A2345678
9ABCDEF0
A5A5A5A5
5A5A5A5A
FFFFFFFF
00000001
87654321
CAFEBABE
DEADBEAF
B16B00B5
A2345678
9ABCDEF0
A5A5A5A5
5A5A5A5A
FFFFFFFF
00000001
87654321
CAFEBABE
DEADBEAF
B16B00B5
A2345678
9ABCDEF0
A5A5A5A5
5A5A5A5A
FFFFFFFF
00000001
87654321
CAFEBABE
DEADBEAF
B16B00B5
A2345678
9ABCDEF0
A5A5A5A5
5A5A5A5A
FFFFFFFF
00000001
87654321
CAFEBABE
DEADBEAF
B16B00B5
A2345678
9ABCDEF0
A5A5A5A5
5A5A5A5A
FFFFFFFF
00000001
87654321
CAFEBABE
DEADBEAF
B16B00B5
A2345678
9ABCDEF0
A5A5A5A5
5A5A5A5A
FFFFFFFF
00000001
87654321
CAFEBABE
DEADBEAF
B16B00B5
A2345678
9ABCDEF0
A5A5A5A5
5A5A5A5A
FFFFFFFF
00000001
87654321
CAFEBABE
DEADBEAF
B16B00B5
A2345678
9ABCDEF0
A5A5A5A5
5A5A5A5A
FFFFFFFF
00000001
87654321
CAFEBABE
DEADBEAF
B16B00B5
A2345678
9ABCDEF0
A5A5A5A5
5A5A5A5A
FFFFFFFF
00000001
87654321
CAFEBABE
DEADBEAF
B16B00B5
A2345678
9ABCDEF0
A5A5A5A5
5A5A5A5A
FFFFFFFF
00000001
87654321
CAFEBABE
DEADBEAF
B16B00B5
A2345678
9ABCDEF0
A5A5A5A5
5A5A5A5A
FFFFFFFF
00000001
87654321
CAFEBABE
DEADBEAF
B16B00B5
A2345678
9ABCDEF0
A5A5A5A5
5A5A5A5A
FFFFFFFF
00000001
87654321
CAFEBABE
DEADBEAF
B16B00B5
A2345678
9ABCDEF0
A5A5A5A5
5A5A5A5A
FFFFFFFF
00000001
87654321
CAFEBABE
DEADBEAF
B16B00B5
A2345678
9ABCDEF0
A5A5A5A5
5A5A5A5A
FFFFFFFF
00000001
87654321
CAFEBABE
DEADBEAF
B16B00B5
A2345678
9ABCDEF0
A5A5A5A5
5A5A5A5A
FFFFFFFF
00000001
87654321
CAFEBABE
DEADBEAF
B16B00B5
A2345678
9ABCDEF0
A5A5A5A5
5A5A5A5A
FFFFFFFF
00000001
87654321
CAFEBABE
DEADBEAF
B16B00B5
A2345678
9ABCDEF0
A5A5A5A5
5A5A5A5A
FFFFFFFF
00000001
87654321
CAFEBABE
DEADBEAF
B16B00B5
A2345678
9ABCDEF0
A5A5A5A5
5A5A5A5A
FFFFFFFF
00000001
87654321
CAFEBABE
DEADBEAF
B16B00B5
A2345678
9ABCDEF0
A5A5A5A5
5A5A5A5A
FFFFFFFF
00000001
87654321
CAFEBABE
DEADBEAF
B16B00B5
A2345678
9ABCDEF0
A5A5A5A5
5A5A5A5A
FFFFFFFF
00000001
87654321
CAFEBABE
DEADBEAF
B16B00B5
A2345678
9ABCDEF0
A5A5A5A5
5A5A5A5A
FFFFFFFF
00000001
87654321
CAFEBABE
DEADBEAF
B16B00B5
A2345678
9ABCDEF0
A5A5A5A5
5A5A5A5A
FFFFFFFF
00000001
87654321
CAFEBABE
DEADBEAF
B16B00B5
A2345678
9ABCDEF0
A5A5A5A5
5A5A5A5A
FFFFFFFF
00000001
87654321
CAFEBABE
DEADBEAF
B16B00B5
A2345678
9ABCDEF0
A5A5A5A5
5A5A5A5A
FFFFFFFF
00000001
87654321
CAFEBABE
DEADBEAF
B16B00B5
A2345678
9ABCDEF0
A5A5A5A5
5A5A5A5A
FFFFFFFF
00000001
87654321
CAFEBABE
DEADBEAF
B16B00B5
A2345678
9ABCDEF0
A5A5A5A5
5A5A5A5A
FFFFFFFF
00000001
87654321
CAFEBABE
DEADBEAF
B16B00B5
A2345678
9ABCDEF0
A5A5A5A5
5A5A5A5A
FFFFFFFF
00000001
87654321
CAFEBABE
DEADBEAF
B16B00B5
A2345678
9ABCDEF0
A5A5A5A5
5A5A5A5A
FFFFFFFF
00000001
87654321
CAFEBABE
DEADBEAF
B16B00B5
A2345678
9ABCDEF0
A5A5A5A5
5A5A5A5A
FFFFFFFF
00000001
87654321
CAFEBABE
DEADBEAF
B16B00B5
A2345678
9ABCDEF0
A5A5A5A5
5A5A5A5A
FFFFFFFF
00000001
87654321
CAFEBABE
DEADBEAF
B16B00B5
A2345678
9ABCDEF0
A5A5A5A5
5A5A5A5A
FFFFFFFF
00000001
87654321
CAFEBABE
DEADBEAF
B16B00B5
A2345678
9ABCDEF0
A5A5A5A5
5A5A5A5A
FFFFFFFF
00000001
87654321
CAFEBABE
DEADBEAF
B16B00B5
A2345678
9ABCDEF0
A5A5A5A5
5A5A5A5A
FFFFFFFF
00000001
87654321
CAFEBABE
DEADBEAF
B16B00B5
A2345678
9ABCDEF0
A5A5A5A5
5A5A5A5A
FFFFFFFF
00000001
87654321
CAFEBABE
DEADBEAF
B16B00B5
A2345678
9ABCDEF0
A5A5A5A5
5A5A5A5A
FFFFFFFF
00000001
87654321
CAFEBABE
DEADBEAF
B16B00B5
A2345678
9ABCDEF0
A5A5A5A5
5A5A5A5A
FFFFFFFF
00000001
87654321
CAFEBABE
DEADBEAF
B16B00B5
A2345678
9ABCDEF0
A5A5A5A5
5A5A5A5A
FFFFFFFF
00000001
87654321
CAFEBABE
DEADBEAF
B16B00B5
A2345678
9ABCDEF0
A5A5A5A5
5A5A5A5A
FFFFFFFF
00000001
87654321
CAFEBABE
DEADBEAF
B16B00B5
A2345678
9ABCDEF0
A5A5A5A5
5A5A5A5A
FFFFFFFF
00000001
87654321
CAFEBABE
DEADBEAF
B16B00B5
A2345678
9ABCDEF0
A5A5A5A5
5A5A5A5A
FFFFFFFF
00000001
87654321
CAFEBABE
DEADBEAF
B16B00B5
A2345678
9ABCDEF0
A5A5A5A5
5A5A5A5A
FFFFFFFF
00000001
87654321
CAFEBABE
DEADBEAF
B16B00B5
A2345678
9ABCDEF0
A5A5A5A5
5A5A5A5A
FFFFFFFF
00000001
87654321
CAFEBABE
DEADBEAF
B16B00B5
A2345678
9ABCDEF0
A5A5A5A5
5A5A5A5A
FFFFFFFF
00000001
87654321
CAFEBABE
DEADBEAF
B16B00B5
A2345678
9ABCDEF0
A5A5A5A5
5A5A5A5A
FFFFFFFF
00000001
87654321
CAFEBABE
DEADBEAF
B16B00B5
A2345678
9ABCDEF0
A5A5A5A5
5A5A5A5A
FFFFFFFF
00000001
87654321
CAFEBABE
DEADBEAF
B16B00B5
A2345678
9ABCDEF0
A5A5A5A5
5A5A5A5A
FFFFFFFF
00000001
87654321
CAFEBABE
DEADBEAF
B16B00B5
A2345678
9ABCDEF0
A5A5A5A5
5A5A5A5A
FFFFFFFF
00000001
87654321
CAFEBABE
DEADBEAF
B16B00B5
A2345678
9ABCDEF0
A5A5A5A5
5A5A5A5A
FFFFFFFF
00000001
87654321
CAFEBABE
DEADBEAF
B16B00B5
A2345678
9ABCDEF0
A5A5A5A5
5A5A5A5A
FFFFFFFF
00000001
87654321
CAFEBABE
DEADBEAF
B16B00B5
A2345678
9ABCDEF0
A5A5A5A5
5A5A5A5A
FFFFFFFF
00000001
87654321
CAFEBABE
DEADBEAF
B16B00B5
A2345678
9ABCDEF0
A5A5A5A5
5A5A5A5A
FFFFFFFF
00000001
87654321
CAFEBABE
DEADBEAF
B16B00B5
A2345678
9ABCDEF0
A5A5A5A5
5A5A5A5A
FFFFFFFF
00000001
87654321
CAFEBABE
DEADBEAF
B16B00B5
A2345678
9ABCDEF0
A5A5A5A5
5A5A5A5A
FFFFFFFF
00000001
87654321
CAFEBABE
DEADBEAF
B16B00B5
A2345678
9ABCDEF0
A5A5A5A5
5A5A5A5A
FFFFFFFF
00000001
87654321
CAFEBABE
DEADBEAF
B16B00B5
A2345678
9ABCDEF0
A5A5A5A5
5A5A5A5A
FFFFFFFF
00000001
87654321
CAFEBABE
DEADBEAF
B16B00B5
A2345678
9ABCDEF0
A5A5A5A5
5A5A5A5A
FFFFFFFF
00000001
87654321
CAFEBABE
DEADBEAF
B16B00B5
A2345678
9ABCDEF0
A5A5A5A5
5A5A5A5A
FFFFFFFF
00000001
87654321
CAFEBABE
DEADBEAF
B16B00B5
A2345678
9ABCDEF0
A5A5A5A5
5A5A5A5A
FFFFFFFF
00000001
87654321
CAFEBABE
DEADBEAF
B16B00B5
A2345678
9ABCDEF0
A5A5A5A5
5A5A5A5A
FFFFFFFF
00000001
87654321
CAFEBABE
DEADBEAF
B16B00B5
A2345678
9ABCDEF0
A5A5A5A5
5A5A5A5A
FFFFFFFF
00000001
87654321
CAFEBABE
DEADBEAF
B16B00B5
A2345678
9ABCDEF0
A5A5A5A5
5A5A5A5A
FFFFFFFF
00000001
87654321
CAFEBABE
DEADBEAF
B16B00B5
A2345678
9ABCDEF0
A5A5A5A5
5A5A5A5A
FFFFFFFF
00000001
87654321
CAFEBABE
DEADBEAF
B16B00B5
A2345678
9ABCDEF0
A5A5A5A5
5A5A5A5A
FFFFFFFF
00000001
87654321
CAFEBABE
DEADBEAF
B16B00B5
A2345678
9ABCDEF0
A5A5A5A5
5A5A5A5A
FFFFFFFF
00000001
87654321
CAFEBABE
DEADBEAF
B16B00B5
A2345678
9ABCDEF0
A5A5A5A5
5A5A5A5A
FFFFFFFF
00000001
87654321
CAFEBABE
DEADBEAF
B16B00B5
A2345678
9ABCDEF0
A5A5A5A5
5A5A5A5A
FFFFFFFF
00000001
87654321
CAFEBABE
DEADBEAF
B16B00B5
A2345678
9ABCDEF0
A5A5A5A5
5A5A5A5A
FFFFFFFF
00000001
87654321
CAFEBABE
DEADBEAF
B16B00B5
A2345678
9ABCDEF0
A5A5A5A5
5A5A5A5A
FFFFFFFF
00000001
87654321
CAFEBABE
DEADBEAF
B16B00B5
A2345678
9ABCDEF0
A5A5A5A5
5A5A5A5A
FFFFFFFF
00000001
87654321
CAFEBABE
DEADBEAF
B16B00B5
A2345678
9ABCDEF0
A5A5A5A5
5A5A5A5A
FFFFFFFF
00000001
87654321
CAFEBABE
DEADBEAF
B16B00B5
A2345678
9ABCDEF0
A5A5A5A5
5A5A5A5A
FFFFFFFF
00000001
87654321
CAFEBABE
DEADBEAF
B16B00B5
A2345678
9ABCDEF0
A5A5A5A5
5A5A5A5A
FFFFFFFF
00000001
87654321
CAFEBABE
DEADBEAF
B16B00B5
A2345678
9ABCDEF0
A5A5A5A5
5A5A5A5A
FFFFFFFF
00000001
87654321
CAFEBABE
DEADBEAF
B16B00B5
A2345678
9ABCDEF0
A5A5A5A5
5A5A5A5A
FFFFFFFF
00000001
87654321
CAFEBABE
DEADBEAF
B16B00B5
A2345678
9ABCDEF0
A5A5A5A5
5A5A5A5A
FFFFFFFF
00000001
87654321
CAFEBABE
DEADBEAF
B16B00B5
A2345678
9ABCDEF0
A5A5A5A5
5A5A5A5A
FFFFFFFF
00000001
87654321
CAFEBABE
DEADBEAF
B16B00B5
A2345678
9ABCDEF0
A5A5A5A5
5A5A5A5A
FFFFFFFF
00000001
87654321
CAFEBABE
DEADBEAF
B16B00B5
A2345678
9ABCDEF0
A5A5A5A5
5A5A5A5A
FFFFFFFF
00000001
87654321
CAFEBABE
DEADBEAF
B16B00B5
A2345678
9ABCDEF0
A5A5A5A5
5A5A5A5A
FFFFFFFF
00000001
87654321
CAFEBABE
DEADBEAF
B16B00B5
A2345678
9ABCDEF0
A5A5A5A5
5A5A5A5A
FFFFFFFF
00000001
87654321
CAFEBABE
DEADBEAF
B16B00B5
A2345678
9ABCDEF0
A5A5A5A5
5A5A5A5A
FFFFFFFF
00000001
87654321
CAFEBABE
DEADBEAF
B16B00B5
A2345678
9ABCDEF0
A5A5A5A5
5A5A5A5A
FFFFFFFF
00000001
87654321
CAFEBABE
DEADBEAF
B16B00B5
A2345678
9ABCDEF0
A5A5A5A5
5A5A5A5A
FFFFFFFF
00000001
87654321
CAFEBABE
DEADBEAF
B16B00B5
A2345678
9ABCDEF0
A5A5A5A5
5A5A5A5A
FFFFFFFF
00000001
87654321
CAFEBABE
DEADBEAF
B16B00B5
A2345678
9ABCDEF0
A5A5A5A5
5A5A5A5A
FFFFFFFF
00000001
87654321
CAFEBABE
DEADBEAF
B16B00B5
A2345678
9ABCDEF0
A5A5A5A5
5A5A5A5A
FFFFFFFF
00000001
87654321
CAFEBABE
DEADBEAF
B16B00B5
A2345678
9ABCDEF0
A5A5A5A5
5A5A5A5A
FFFFFFFF
00000001
87654321
CAFEBABE
DEADBEAF
B16B00B5
A2345678
9ABCDEF0
A5A5A5A5
5A5A5A5A
FFFFFFFF
00000001
87654321
CAFEBABE
DEADBEAF
B16B00B5
A2345678
9ABCDEF0
A5A5A5A5
5A5A5A5A
FFFFFFFF
00000001
87654321
CAFEBABE
DEADBEAF
B16B00B5
A2345678
9ABCDEF0
A5A5A5A5
5A5A5A5A
FFFFFFFF
00000001
87654321
CAFEBABE
DEADBEAF
B16B00B5
A2345678
9ABCDEF0
A5A5A5A5
5A5A5A5A
FFFFFFFF
00000001
87654321
CAFEBABE
DEADBEAF
B16B00B5
A2345678
9ABCDEF0
A5A5A5A5
5A5A5A5A
FFFFFFFF
00000001
87654321
CAFEBABE
DEADBEAF
B16B00B5
A2345678
9ABCDEF0
A5A5A5A5
5A5A5A5A
FFFFFFFF
00000001
87654321
CAFEBABE
DEADBEAF
B16B00B5
A2345678
9ABCDEF0
A5A5A5A5
5A5A5A5A
FFFFFFFF
00000001
87654321
CAFEBABE
DEADBEAF
B16B00B5
A2345678
9ABCDEF0
A5A5A5A5
5A5A5A5A
FFFFFFFF
00000001
87654321
CAFEBABE
DEADBEAF
B16B00B5
A2345678
9ABCDEF0
A5A5A5A5
5A5A5A5A
FFFFFFFF
00000001
87654321
CAFEBABE
DEADBEAF
B16B00B5
A2345678
9ABCDEF0
A5A5A5A5
5A5A5A5A
FFFFFFFF
00000001
87654321
CAFEBABE
DEADBEAF
B16B00B5
A2345678
9ABCDEF0
A5A5A5A5
5A5A5A5A
FFFFFFFF
00000001
87654321
CAFEBABE
DEADBEAF
B16B00B5
A2345678
9ABCDEF0
A5A5A5A5
5A5A5A5A
FFFFFFFF
00000001
87654321
CAFEBABE
DEADBEAF
B16B00B5
A2345678
9ABCDEF0
A5A5A5A5
5A5A5A5A
FFFFFFFF
00000001
87654321
CAFEBABE
DEADBEAF
B16B00B5
A2345678
9ABCDEF0
A5A5A5A5
5A5A5A5A
FFFFFFFF
00000001
87654321
CAFEBABE
DEADBEAF
B16B00B5
A2345678
9ABCDEF0
A5A5A5A5
5A5A5A5A
FFFFFFFF
00000001
87654321
CAFEBABE
DEADBEAF
B16B00B5
A2345678
9ABCDEF0
A5A5A5A5
5A5A5A5A
FFFFFFFF
00000001
87654321
CAFEBABE
DEADBEAF
B16B00B5
A2345678
9ABCDEF0
A5A5A5A5
5A5A5A5A
FFFFFFFF
00000001
87654321
CAFEBABE
DEADBEAF
B16B00B5
A2345678
9ABCDEF0
A5A5A5A5
5A5A5A5A
FFFFFFFF
00000001
87654321
CAFEBABE
DEADBEAF
B16B00B5
A2345678
9ABCDEF0
A5A5A5A5
5A5A5A5A
FFFFFFFF
00000001
87654321
CAFEBABE
DEADBEAF
B16B00B5
A2345678
9ABCDEF0
A5A5A5A5
5A5A5A5A
FFFFFFFF
00000001
87654321
CAFEBABE
DEADBEAF
B16B00B5
A2345678
9ABCDEF0
A5A5A5A5
5A5A5A5A
FFFFFFFF
00000001
87654321
CAFEBABE
DEADBEAF
B16B00B5
A2345678
9ABCDEF0
A5A5A5A5
5A5A5A5A
FFFFFFFF
00000001
87654321
CAFEBABE
DEADBEAF
B16B00B5
A2345678
9ABCDEF0
A5A5A5A5
5A5A5A5A
FFFFFFFF
00000001
87654321
CAFEBABE
DEADBEAF
B16B00B5
A2345678
9ABCDEF0
A5A5A5A5
5A5A5A5A
FFFFFFFF
00000001
87654321
CAFEBABE
DEADBEAF
B16B00B5
A2345678
9ABCDEF0
A5A5A5A5
5A5A5A5A
FFFFFFFF
00000001
87654321
CAFEBABE
DEADBEAF
B16B00B5
A2345678
9ABCDEF0
A5A5A5A5
5A5A5A5A
FFFFFFFF
00000001
87654321
CAFEBABE
DEADBEAF
B16B00B5
A2345678
9ABCDEF0
A5A5A5A5
5A5A5A5A
FFFFFFFF
00000001
87654321
CAFEBABE
DEADBEAF
B16B00B5
A2345678
9ABCDEF0
A5A5A5A5
5A5A5A5A
FFFFFFFF
00000001
87654321
CAFEBABE
DEADBEAF
B16B00B5
A2345678
9ABCDEF0
A5A5A5A5
5A5A5A5A
FFFFFFFF
00000001
87654321
CAFEBABE
DEADBEAF
B16B00B5
A2345678
9ABCDEF0
A5A5A5A5
5A5A5A5A
FFFFFFFF
00000001
87654321
CAFEBABE
DEADBEAF
B16B00B5
A2345678
9ABCDEF0
A5A5A5A5
5A5A5A5A
FFFFFFFF
00000001
87654321
CAFEBABE
DEADBEAF
B16B00B5
A2345678
9ABCDEF0
A5A5A5A5
5A5A5A5A
FFFFFFFF
00000001
87654321
CAFEBABE
DEADBEAF
B16B00B5
A2345678
9ABCDEF0
A5A5A5A5
5A5A5A5A
FFFFFFFF
00000001
87654321
CAFEBABE
DEADBEAF
B16B00B5
A2345678
9ABCDEF0
A5A5A5A5
5A5A5A5A
FFFFFFFF
00000001
87654321
CAFEBABE
DEADBEAF
B16B00B5
A2345678
9ABCDEF0
A5A5A5A5
5A5A5A5A
FFFFFFFF
00000001
87654321
CAFEBABE
DEADBEAF
B16B00B5
A2345678
9ABCDEF0
A5A5A5A5
5A5A5A5A
FFFFFFFF
00000001
87654321
CAFEBABE
DEADBEAF
B16B00B5
A2345678
9ABCDEF0
A5A5A5A5
5A5A5A5A
FFFFFFFF
00000001
87654321
CAFEBABE
DEADBEAF
B16B00B5
A2345678
9ABCDEF0
A5A5A5A5
5A5A5A5A
FFFFFFFF
00000001
87654321
CAFEBABE
DEADBEAF
B16B00B5
A2345678
9ABCDEF0
A5A5A5A5
5A5A5A5A
FFFFFFFF
00000001
87654321
CAFEBABE
DEADBEAF
B16B00B5
A2345678
9ABCDEF0
A5A5A5A5
5A5A5A5A
FFFFFFFF
00000001
87654321
CAFEBABE
DEADBEAF
B16B00B5
A2345678
9ABCDEF0
A5A5A5A5
5A5A5A5A
FFFFFFFF
00000001
87654321
CAFEBABE
DEADBEAF
B16B00B5
A2345678
9ABCDEF0
A5A5A5A5
5A5A5A5A
FFFFFFFF
00000001
87654321
CAFEBABE
DEADBEAF
B16B00B5
A2345678
9ABCDEF0
A5A5A5A5
5A5A5A5A
FFFFFFFF
00000001
87654321
CAFEBABE
DEADBEAF
B16B00B5
A2345678
9ABCDEF0
A5A5A5A5
5A5A5A5A
FFFFFFFF
00000001
87654321
CAFEBABE
DEADBEAF
B16B00B5
A2345678
9ABCDEF0
A5A5A5A5
5A5A5A5A
FFFFFFFF
00000001
87654321
CAFEBABE
DEADBEAF
B16B00B5
A2345678
9ABCDEF0
A5A5A5A5
5A5A5A5A
FFFFFFFF
00000001
87654321
CAFEBABE
DEADBEAF
B16B00B5
A2345678
9ABCDEF0
A5A5A5A5
5A5A5A5A
FFFFFFFF
00000001
87654321
CAFEBABE
DEADBEAF
B16B00B5
A2345678
9ABCDEF0
A5A5A5A5
5A5A5A5A
FFFFFFFF
00000001
87654321
CAFEBABE
DEADBEAF
B16B00B5
A2345678
9ABCDEF0
A5A5A5A5
5A5A5A5A
FFFFFFFF
00000001
87654321
CAFEBABE
DEADBEAF
B16B00B5
A2345678
9ABCDEF0
A5A5A5A5
5A5A5A5A
FFFFFFFF
00000001
87654321
CAFEBABE
DEADBEAF
B16B00B5
A2345678
9ABCDEF0
A5A5A5A5
5A5A5A5A
FFFFFFFF
00000001
87654321
CAFEBABE
DEADBEAF
B16B00B5
A2345678
9ABCDEF0
A5A5A5A5
5A5A5A5A
FFFFFFFF
00000001
87654321
CAFEBABE
DEADBEAF
B16B00B5
A2345678
9ABCDEF0
A5A5A5A5
5A5A5A5A
FFFFFFFF
00000001
87654321
CAFEBABE
DEADBEAF
B16B00B5
A2345678
9ABCDEF0
A5A5A5A5
5A5A5A5A
FFFFFFFF
00000001
87654321
CAFEBABE
DEADBEAF
B16B00B5
A2345678
9ABCDEF0
A5A5A5A5
5A5A5A5A
FFFFFFFF
00000001
87654321
CAFEBABE
DEADBEAF
B16B00B5
A2345678
9ABCDEF0
A5A5A5A5
5A5A5A5A
FFFFFFFF
00000001
87654321
CAFEBABE
DEADBEAF
B16B00B5
A2345678
9ABCDEF0
A5A5A5A5
5A5A5A5A
FFFFFFFF
00000001
87654321
CAFEBABE
DEADBEAF
B16B00B5
A2345678
9ABCDEF0
A5A5A5A5
5A5A5A5A
FFFFFFFF
00000001
87654321
CAFEBABE
DEADBEAF
B16B00B5
A2345678
9ABCDEF0
A5A5A5A5
5A5A5A5A
FFFFFFFF
00000001
87654321
CAFEBABE
DEADBEAF
B16B00B5
A2345678
9ABCDEF0
A5A5A5A5
5A5A5A5A
FFFFFFFF
00000001
87654321
CAFEBABE
DEADBEAF
B16B00B5
A2345678
9ABCDEF0
A5A5A5A5
5A5A5A5A
FFFFFFFF
00000001
87654321
CAFEBABE
DEADBEAF
B16B00B5
A2345678
9ABCDEF0
A5A5A5A5
5A5A5A5A
FFFFFFFF
00000001
87654321
CAFEBABE
DEADBEAF
B16B00B5
A2345678
9ABCDEF0
A5A5A5A5
5A5A5A5A
FFFFFFFF
00000001
87654321
CAFEBABE
DEADBEAF
B16B00B5
A2345678
9ABCDEF0
A5A5A5A5
5A5A5A5A
FFFFFFFF
00000001
87654321
CAFEBABE
DEADBEAF
B16B00B5
A2345678
9ABCDEF0
A5A5A5A5
5A5A5A5A
FFFFFFFF
00000001
87654321
CAFEBABE
DEADBEAF
B16B00B5
A2345678
9ABCDEF0
A5A5A5A5
5A5A5A5A
FFFFFFFF
00000001
87654321
CAFEBABE
DEADBEAF
B16B00B5
A2345678
9ABCDEF0
A5A5A5A5
5A5A5A5A
FFFFFFFF
00000001
87654321
CAFEBABE
DEADBEAF
B16B00B5
A2345678
9ABCDEF0
A5A5A5A5
5A5A5A5A
FFFFFFFF
00000001
87654321
CAFEBABE
DEADBEAF
B16B00B5
A2345678
9ABCDEF0
A5A5A5A5
5A5A5A5A
FFFFFFFF
00000001
87654321
CAFEBABE
DEADBEAF
B16B00B5
A2345678
9ABCDEF0
A5A5A5A5
5A5A5A5A
FFFFFFFF
00000001
87654321
CAFEBABE
DEADBEAF
B16B00B5
A2345678
9ABCDEF0
A5A5A5A5
5A5A5A5A
FFFFFFFF
00000001
87654321
CAFEBABE
DEADBEAF
B16B00B5
A2345678
9ABCDEF0
A5A5A5A5
5A5A5A5A
FFFFFFFF
00000001
87654321
CAFEBABE
DEADBEAF
B16B00B5
A2345678
9ABCDEF0
A5A5A5A5
5A5A5A5A
FFFFFFFF
00000001
87654321
CAFEBABE
DEADBEAF
B16B00B5
A2345678
9ABCDEF0
A5A5A5A5
5A5A5A5A
FFFFFFFF
00000001
87654321
CAFEBABE
DEADBEAF
B16B00B5
A2345678
9ABCDEF0
A5A5A5A5
5A5A5A5A
FFFFFFFF
00000001
87654321
CAFEBABE
DEADBEAF
B16B00B5
A2345678
9ABCDEF0
A5A5A5A5
5A5A5A5A
FFFFFFFF
00000001
87654321
CAFEBABE
DEADBEAF
B16B00B5
A2345678
9ABCDEF0
A5A5A5A5
5A5A5A5A
FFFFFFFF
00000001
87654321
CAFEBABE
DEADBEAF
B16B00B5
A2345678
9ABCDEF0
A5A5A5A5
5A5A5A5A
FFFFFFFF
00000001
87654321
CAFEBABE
DEADBEAF
B16B00B5
A2345678
9ABCDEF0
A5A5A5A5
5A5A5A5A
FFFFFFFF
00000001
87654321
CAFEBABE
DEADBEAF
B16B00B5
A2345678
9ABCDEF0
A5A5A5A5
5A5A5A5A
FFFFFFFF
00000001
87654321
CAFEBABE
DEADBEAF
B16B00B5
A2345678
9ABCDEF0
A5A5A5A5
5A5A5A5A
FFFFFFFF
00000001
87654321
CAFEBABE
DEADBEAF
B16B00B5
A2345678
9ABCDEF0
A5A5A5A5
5A5A5A5A
FFFFFFFF
00000001
87654321
CAFEBABE
DEADBEAF
B16B00B5
A2345678
9ABCDEF0
A5A5A5A5
5A5A5A5A
FFFFFFFF
00000001
87654321
CAFEBABE
DEADBEAF
B16B00B5
A2345678
9ABCDEF0
A5A5A5A5
5A5A5A5A
FFFFFFFF
00000001
87654321
CAFEBABE
DEADBEAF
B16B00B5
A2345678
9ABCDEF0
A5A5A5A5
5A5A5A5A
FFFFFFFF
00000001
87654321
CAFEBABE
DEADBEAF
B16B00B5
A2345678
9ABCDEF0
A5A5A5A5
5A5A5A5A
FFFFFFFF
00000001
87654321
CAFEBABE
DEADBEAF
B16B00B5
A2345678
9ABCDEF0
A5A5A5A5
5A5A5A5A
FFFFFFFF
00000001
87654321
CAFEBABE
DEADBEAF
B16B00B5
A2345678
9ABCDEF0
A5A5A5A5
5A5A5A5A
FFFFFFFF
00000001
87654321
CAFEBABE
DEADBEAF
B16B00B5
A2345678
9ABCDEF0
A5A5A5A5
5A5A5A5A
FFFFFFFF
00000001
87654321
CAFEBABE
DEADBEAF
B16B00B5
A2345678
9ABCDEF0
A5A5A5A5
5A5A5A5A
FFFFFFFF
00000001
87654321
CAFEBABE
DEADBEAF
B16B00B5
A2345678
9ABCDEF0
A5A5A5A5
5A5A5A5A
FFFFFFFF
00000001
87654321
CAFEBABE
DEADBEAF
B16B00B5
A2345678
9ABCDEF0
A5A5A5A5
5A5A5A5A
FFFFFFFF
00000001
87654321
CAFEBABE
DEADBEAF
B16B00B5
A2345678
9ABCDEF0
A5A5A5A5
5A5A5A5A
FFFFFFFF
00000001
87654321
CAFEBABE
DEADBEAF
B16B00B5
A2345678
9ABCDEF0
A5A5A5A5
5A5A5A5A
FFFFFFFF
00000001
87654321
CAFEBABE
DEADBEAF
B16B00B5
A2345678
9ABCDEF0
A5A5A5A5
5A5A5A5A
FFFFFFFF
00000001
87654321
CAFEBABE
DEADBEAF
B16B00B5
A2345678
9ABCDEF0
A5A5A5A5
5A5A5A5A
FFFFFFFF
00000001
87654321
CAFEBABE
DEADBEAF
B16B00B5
A2345678
9ABCDEF0
A5A5A5A5
5A5A5A5A
FFFFFFFF
00000001
87654321
CAFEBABE
DEADBEAF
B16B00B5
A2345678
9ABCDEF0
A5A5A5A5
5A5A5A5A
FFFFFFFF
00000001
87654321
CAFEBABE
DEADBEAF
B16B00B5
A2345678
9ABCDEF0
A5A5A5A5
5A5A5A5A
FFFFFFFF
00000001
87654321
CAFEBABE
DEADBEAF
B16B00B5
A2345678
9ABCDEF0
A5A5A5A5
5A5A5A5A
FFFFFFFF
00000001
87654321
CAFEBABE
DEADBEAF
B16B00B5
A2345678
9ABCDEF0
A5A5A5A5
5A5A5A5A
FFFFFFFF
00000001
87654321
CAFEBABE
DEADBEAF
B16B00B5
A2345678
9ABCDEF0
A5A5A5A5
5A5A5A5A
FFFFFFFF
00000001
87654321
CAFEBABE
DEADBEAF
B16B00B5
A2345678
9ABCDEF0
A5A5A5A5
5A5A5A5A
FFFFFFFF
00000001
87654321
CAFEBABE
DEADBEAF
B16B00B5
A2345678
9ABCDEF0
A5A5A5A5
5A5A5A5A
FFFFFFFF
00000001
87654321
CAFEBABE
DEADBEAF
B16B00B5
A2345678
9ABCDEF0
A5A5A5A5
5A5A5A5A
FFFFFFFF
00000001
87654321
CAFEBABE
DEADBEAF
B16B00B5
A2345678
9ABCDEF0
A5A5A5A5
5A5A5A5A
FFFFFFFF
00000001
87654321
CAFEBABE
DEADBEAF
B16B00B5
A2345678
9ABCDEF0
A5A5A5A5
5A5A5A5A
FFFFFFFF
00000001
87654321
CAFEBABE
DEADBEAF
B16B00B5
A2345678
9ABCDEF0
A5A5A5A5
5A5A5A5A
FFFFFFFF
00000001
87654321
CAFEBABE
DEADBEAF
B16B00B5
A2345678
9ABCDEF0
A5A5A5A5
5A5A5A5A
FFFFFFFF
00000001
87654321
CAFEBABE
DEADBEAF
B16B00B5
A2345678
9ABCDEF0
A5A5A5A5
5A5A5A5A
FFFFFFFF
00000001
87654321
CAFEBABE
DEADBEAF
B16B00B5
A2345678
9ABCDEF0
A5A5A5A5
5A5A5A5A
FFFFFFFF
00000001
87654321
CAFEBABE
DEADBEAF
B16B00B5
A2345678
9ABCDEF0
A5A5A5A5
5A5A5A5A
FFFFFFFF
00000001
87654321
CAFEBABE
DEADBEAF
B16B00B5
A2345678
9ABCDEF0
A5A5A5A5
5A5A5A5A
FFFFFFFF
00000001
87654321
CAFEBABE
DEADBEAF
B16B00B5
A2345678
9ABCDEF0
A5A5A5A5
5A5A5A5A
FFFFFFFF
00000001
87654321
CAFEBABE
DEADBEAF
B16B00B5
A2345678
9ABCDEF0
A5A5A5A5
5A5A5A5A
FFFFFFFF
00000001
87654321
CAFEBABE
DEADBEAF
B16B00B5
A2345678
9ABCDEF0
A5A5A5A5
5A5A5A5A
FFFFFFFF
00000001
87654321
CAFEBABE
DEADBEAF
B16B00B5
A2345678
9ABCDEF0
A5A5A5A5
5A5A5A5A
FFFFFFFF
00000001
87654321
CAFEBABE
DEADBEAF
B16B00B5
A2345678
9ABCDEF0
A5A5A5A5
5A5A5A5A
FFFFFFFF
00000001
87654321
CAFEBABE
DEADBEAF
B16B00B5
A2345678
9ABCDEF0
A5A5A5A5
5A5A5A5A
FFFFFFFF
00000001
87654321
CAFEBABE
DEADBEAF
B16B00B5
A2345678
9ABCDEF0
A5A5A5A5
5A5A5A5A
FFFFFFFF
00000001
87654321
CAFEBABE
DEADBEAF
B16B00B5
A2345678
9ABCDEF0
A5A5A5A5
5A5A5A5A
FFFFFFFF
00000001
87654321
CAFEBABE
DEADBEAF
B16B00B5
A2345678
9ABCDEF0
A5A5A5A5
5A5A5A5A
FFFFFFFF
00000001
87654321
CAFEBABE
DEADBEAF
B16B00B5
A2345678
9ABCDEF0
A5A5A5A5
5A5A5A5A
FFFFFFFF
00000001
87654321
CAFEBABE
DEADBEAF
B16B00B5
A2345678
9ABCDEF0
A5A5A5A5
5A5A5A5A
FFFFFFFF
00000001
87654321
CAFEBABE
DEADBEAF
B16B00B5
A2345678
9ABCDEF0
A5A5A5A5
5A5A5A5A
FFFFFFFF
00000001
87654321
CAFEBABE
DEADBEAF
B16B00B5
A2345678
9ABCDEF0
A5A5A5A5
5A5A5A5A
FFFFFFFF
00000001
87654321
CAFEBABE
DEADBEAF
B16B00B5
A2345678
9ABCDEF0
A5A5A5A5
5A5A5A5A
FFFFFFFF
00000001
87654321
CAFEBABE
DEADBEAF
B16B00B5
A2345678
9ABCDEF0
A5A5A5A5
5A5A5A5A
FFFFFFFF
00000001
87654321
CAFEBABE
DEADBEAF
B16B00B5
A2345678
9ABCDEF0
A5A5A5A5
5A5A5A5A
FFFFFFFF
00000001
87654321
CAFEBABE
DEADBEAF
B16B00B5
A2345678
9ABCDEF0
A5A5A5A5
5A5A5A5A
FFFFFFFF
00000001
87654321
CAFEBABE
DEADBEAF
B16B00B5
A2345678
9ABCDEF0
A5A5A5A5
5A5A5A5A
FFFFFFFF
00000001
87654321
CAFEBABE
DEADBEAF
B16B00B5
A2345678
9ABCDEF0
A5A5A5A5
5A5A5A5A
FFFFFFFF
00000001
87654321
CAFEBABE
DEADBEAF
B16B00B5
A2345678
9ABCDEF0
A5A5A5A5
5A5A5A5A
FFFFFFFF
00000001
87654321
CAFEBABE
DEADBEAF
B16B00B5
A2345678
9ABCDEF0
A5A5A5A5
5A5A5A5A
FFFFFFFF
00000001
87654321
CAFEBABE
DEADBEAF
B16B00B5
A2345678
9ABCDEF0
A5A5A5A5
5A5A5A5A
FFFFFFFF
00000001
87654321
CAFEBABE
DEADBEAF
B16B00B5
A2345678
9ABCDEF0
A5A5A5A5
5A5A5A5A
FFFFFFFF
00000001
87654321
CAFEBABE
DEADBEAF
B16B00B5
A2345678
9ABCDEF0
A5A5A5A5
5A5A5A5A
FFFFFFFF
00000001
87654321
CAFEBABE
DEADBEAF
B16B00B5
A2345678
9ABCDEF0
A5A5A5A5
5A5A5A5A
FFFFFFFF
00000001
87654321
CAFEBABE
DEADBEAF
B16B00B5
A2345678
9ABCDEF0
A5A5A5A5
5A5A5A5A
FFFFFFFF
00000001
87654321
CAFEBABE
DEADBEAF
B16B00B5
A2345678
9ABCDEF0
A5A5A5A5
5A5A5A5A
FFFFFFFF
00000001
87654321
CAFEBABE
DEADBEAF
B16B00B5
A2345678
9ABCDEF0
A5A5A5A5
5A5A5A5A
FFFFFFFF
00000001
87654321
CAFEBABE
DEADBEAF
B16B00B5
A2345678
9ABCDEF0
A5A5A5A5
5A5A5A5A
FFFFFFFF
00000001
87654321
CAFEBABE
DEADBEAF
B16B00B5
A2345678
9ABCDEF0
A5A5A5A5
5A5A5A5A
FFFFFFFF
00000001
87654321
CAFEBABE
DEADBEAF
B16B00B5
A2345678
9ABCDEF0
A5A5A5A5
5A5A5A5A
FFFFFFFF
00000001
87654321
CAFEBABE
DEADBEAF
B16B00B5
A2345678
9ABCDEF0
A5A5A5A5
5A5A5A5A
FFFFFFFF
00000001
87654321
CAFEBABE
DEADBEAF
B16B00B5
A2345678
9ABCDEF0
A5A5A5A5
5A5A5A5A
FFFFFFFF
00000001
87654321
CAFEBABE
DEADBEAF
B16B00B5
A2345678
9ABCDEF0
A5A5A5A5
5A5A5A5A
FFFFFFFF
00000001
87654321
CAFEBABE
DEADBEAF
B16B00B5
A2345678
9ABCDEF0
A5A5A5A5
5A5A5A5A
FFFFFFFF
00000001
87654321
CAFEBABE
DEADBEAF
B16B00B5
A2345678
9ABCDEF0
A5A5A5A5
5A5A5A5A
FFFFFFFF
00000001
87654321
CAFEBABE
DEADBEAF
B16B00B5
A2345678
9ABCDEF0
A5A5A5A5
5A5A5A5A
FFFFFFFF
00000001
87654321
CAFEBABE
DEADBEAF
B16B00B5
A2345678
9ABCDEF0
A5A5A5A5
5A5A5A5A
FFFFFFFF
00000001
87654321
CAFEBABE
DEADBEAF
B16B00B5
A2345678
9ABCDEF0
A5A5A5A5
5A5A5A5A
FFFFFFFF
00000001
87654321
CAFEBABE
DEADBEAF
B16B00B5
A2345678
9ABCDEF0
A5A5A5A5
5A5A5A5A
FFFFFFFF
00000001
87654321
CAFEBABE
DEADBEAF
B16B00B5
A2345678
9ABCDEF0
A5A5A5A5
5A5A5A5A
FFFFFFFF
00000001
87654321
CAFEBABE
DEADBEAF
B16B00B5
A2345678
9ABCDEF0
A5A5A5A5
5A5A5A5A
FFFFFFFF
00000001
87654321
CAFEBABE
DEADBEAF
B16B00B5
A2345678
9ABCDEF0
A5A5A5A5
5A5A5A5A
FFFFFFFF
00000001
87654321
CAFEBABE
DEADBEAF
B16B00B5
A2345678
9ABCDEF0
A5A5A5A5
5A5A5A5A
FFFFFFFF
00000001
87654321
CAFEBABE
DEADBEAF
B16B00B5
A2345678
9ABCDEF0
A5A5A5A5
5A5A5A5A
FFFFFFFF
00000001
87654321
CAFEBABE
DEADBEAF
B16B00B5
A2345678
9ABCDEF0
A5A5A5A5
5A5A5A5A
FFFFFFFF
00000001
87654321
CAFEBABE
DEADBEAF
B16B00B5
A2345678
9ABCDEF0
A5A5A5A5
5A5A5A5A
FFFFFFFF
00000001
87654321
CAFEBABE
DEADBEAF
B16B00B5
A2345678
9ABCDEF0
A5A5A5A5
5A5A5A5A
FFFFFFFF
00000001
87654321
CAFEBABE
DEADBEAF
B16B00B5
A2345678
9ABCDEF0
A5A5A5A5
5A5A5A5A
FFFFFFFF
00000001
87654321
CAFEBABE
DEADBEAF
B16B00B5
A2345678
9ABCDEF0
A5A5A5A5
5A5A5A5A
FFFFFFFF
00000001
87654321
CAFEBABE
DEADBEAF
B16B00B5
A2345678
9ABCDEF0
A5A5A5A5
5A5A5A5A
FFFFFFFF
00000001
87654321
CAFEBABE
DEADBEAF
B16B00B5
A2345678
9ABCDEF0
A5A5A5A5
5A5A5A5A
FFFFFFFF
00000001
87654321
CAFEBABE
DEADBEAF
B16B00B5
A2345678
9ABCDEF0
A5A5A5A5
5A5A5A5A
FFFFFFFF
00000001
87654321
CAFEBABE
DEADBEAF
B16B00B5
A2345678
9ABCDEF0
A5A5A5A5
5A5A5A5A
FFFFFFFF
00000001
87654321
CAFEBABE
DEADBEAF
B16B00B5
A2345678
9ABCDEF0
A5A5A5A5
5A5A5A5A
FFFFFFFF
00000001
87654321
CAFEBABE
DEADBEAF
B16B00B5
A2345678
9ABCDEF0
A5A5A5A5
5A5A5A5A
FFFFFFFF
00000001
87654321
CAFEBABE
DEADBEAF
B16B00B5
A2345678
9ABCDEF0
A5A5A5A5
5A5A5A5A
FFFFFFFF
00000001
87654321
CAFEBABE
DEADBEAF
B16B00B5
A2345678
9ABCDEF0
A5A5A5A5
5A5A5A5A
FFFFFFFF
00000001
87654321
CAFEBABE
DEADBEAF
B16B00B5
A2345678
9ABCDEF0
A5A5A5A5
5A5A5A5A
FFFFFFFF
00000001
87654321
CAFEBABE
DEADBEAF
B16B00B5
A2345678
9ABCDEF0
A5A5A5A5
5A5A5A5A
FFFFFFFF
00000001
87654321
CAFEBABE
DEADBEAF
B16B00B5
A2345678
9ABCDEF0
A5A5A5A5
5A5A5A5A
FFFFFFFF
00000001
87654321
CAFEBABE
DEADBEAF
B16B00B5
A2345678
9ABCDEF0
A5A5A5A5
5A5A5A5A
FFFFFFFF
00000001
87654321
CAFEBABE
DEADBEAF
B16B00B5
A2345678
9ABCDEF0
A5A5A5A5
5A5A5A5A
FFFFFFFF
00000001
87654321
CAFEBABE
DEADBEAF
B16B00B5
A2345678
9ABCDEF0
A5A5A5A5
5A5A5A5A
FFFFFFFF
00000001
87654321
CAFEBABE
DEADBEAF
B16B00B5
A2345678
9ABCDEF0
A5A5A5A5
5A5A5A5A
FFFFFFFF
00000001
87654321
CAFEBABE
DEADBEAF
B16B00B5
A2345678
9ABCDEF0
A5A5A5A5
5A5A5A5A
FFFFFFFF
00000001
87654321
CAFEBABE
DEADBEAF
B16B00B5
A2345678
9ABCDEF0
A5A5A5A5
5A5A5A5A
FFFFFFFF
00000001
87654321
CAFEBABE
DEADBEAF
B16B00B5
A2345678
9ABCDEF0
A5A5A5A5
5A5A5A5A
FFFFFFFF
00000001
87654321
CAFEBABE
DEADBEAF
B16B00B5
A2345678
9ABCDEF0
A5A5A5A5
5A5A5A5A
FFFFFFFF
00000001
87654321
CAFEBABE
DEADBEAF
B16B00B5
A2345678
9ABCDEF0
A5A5A5A5
5A5A5A5A
FFFFFFFF
00000001
87654321
CAFEBABE
DEADBEAF
B16B00B5
A2345678
9ABCDEF0
A5A5A5A5
5A5A5A5A
FFFFFFFF
00000001
87654321
CAFEBABE
DEADBEAF
B16B00B5
A2345678
9ABCDEF0
A5A5A5A5
5A5A5A5A
FFFFFFFF
00000001
87654321
CAFEBABE
DEADBEAF
B16B00B5
A2345678
9ABCDEF0
A5A5A5A5
5A5A5A5A
FFFFFFFF
00000001
87654321
CAFEBABE
DEADBEAF
B16B00B5
A2345678
9ABCDEF0
A5A5A5A5
5A5A5A5A
FFFFFFFF
00000001
87654321
CAFEBABE
DEADBEAF
B16B00B5
A2345678
9ABCDEF0
A5A5A5A5
5A5A5A5A
FFFFFFFF
00000001
87654321
CAFEBABE
DEADBEAF
B16B00B5
A2345678
9ABCDEF0
A5A5A5A5
5A5A5A5A
FFFFFFFF
00000001
87654321
CAFEBABE
DEADBEAF
B16B00B5
A2345678
9ABCDEF0
A5A5A5A5
5A5A5A5A
FFFFFFFF
00000001
87654321
CAFEBABE
DEADBEAF
B16B00B5
A2345678
9ABCDEF0
A5A5A5A5
5A5A5A5A
FFFFFFFF
00000001
87654321
CAFEBABE
DEADBEAF
B16B00B5
A2345678
9ABCDEF0
A5A5A5A5
5A5A5A5A
FFFFFFFF
00000001
87654321
CAFEBABE
DEADBEAF
B16B00B5
A2345678
9ABCDEF0
A5A5A5A5
5A5A5A5A
FFFFFFFF
00000001
87654321
CAFEBABE
DEADBEAF
B16B00B5
A2345678
9ABCDEF0
A5A5A5A5
5A5A5A5A
FFFFFFFF
00000001
87654321
CAFEBABE
DEADBEAF
B16B00B5
A2345678
9ABCDEF0
A5A5A5A5
5A5A5A5A
FFFFFFFF
00000001
87654321
CAFEBABE
DEADBEAF
B16B00B5
A2345678
9ABCDEF0
A5A5A5A5
5A5A5A5A
FFFFFFFF
00000001
87654321
CAFEBABE
DEADBEAF
B16B00B5
A2345678
9ABCDEF0
A5A5A5A5
5A5A5A5A
FFFFFFFF
00000001
87654321
CAFEBABE
DEADBEAF
B16B00B5
A2345678
9ABCDEF0
A5A5A5A5
5A5A5A5A
FFFFFFFF
00000001
87654321
CAFEBABE
DEADBEAF
B16B00B5
A2345678
9ABCDEF0
A5A5A5A5
5A5A5A5A
FFFFFFFF
00000001
87654321
CAFEBABE
DEADBEAF
B16B00B5
A2345678
9ABCDEF0
A5A5A5A5
5A5A5A5A
FFFFFFFF
00000001
87654321
CAFEBABE
DEADBEAF
B16B00B5
A2345678
9ABCDEF0
A5A5A5A5
5A5A5A5A
FFFFFFFF
00000001
87654321
CAFEBABE
DEADBEAF
B16B00B5
A2345678
9ABCDEF0
A5A5A5A5
5A5A5A5A
FFFFFFFF
00000001
87654321
CAFEBABE
DEADBEAF
B16B00B5
A2345678
9ABCDEF0
A5A5A5A5
5A5A5A5A
FFFFFFFF
00000001
87654321
CAFEBABE
DEADBEAF
B16B00B5
A2345678
9ABCDEF0
A5A5A5A5
5A5A5A5A
FFFFFFFF
00000001
87654321
CAFEBABE
DEADBEAF
B16B00B5
A2345678
9ABCDEF0
A5A5A5A5
5A5A5A5A
FFFFFFFF
00000001
87654321
CAFEBABE
DEADBEAF
B16B00B5
A2345678
9ABCDEF0
A5A5A5A5
5A5A5A5A
FFFFFFFF
00000001
87654321
CAFEBABE
DEADBEAF
B16B00B5
A2345678
9ABCDEF0
A5A5A5A5
5A5A5A5A
FFFFFFFF
00000001
87654321
CAFEBABE
DEADBEAF
B16B00B5
A2345678
9ABCDEF0
A5A5A5A5
5A5A5A5A
FFFFFFFF
00000001
87654321
CAFEBABE
DEADBEAF
B16B00B5
A2345678
9ABCDEF0
A5A5A5A5
5A5A5A5A
FFFFFFFF
00000001
87654321
CAFEBABE
DEADBEAF
B16B00B5
A2345678
9ABCDEF0
A5A5A5A5
5A5A5A5A
FFFFFFFF
00000001
87654321
CAFEBABE
DEADBEAF
B16B00B5
A2345678
9ABCDEF0
A5A5A5A5
5A5A5A5A
FFFFFFFF
00000001
87654321
CAFEBABE
DEADBEAF
B16B00B5
A2345678
9ABCDEF0
A5A5A5A5
5A5A5A5A
FFFFFFFF
00000001
87654321
CAFEBABE
DEADBEAF
B16B00B5
A2345678
9ABCDEF0
A5A5A5A5
5A5A5A5A
FFFFFFFF
00000001
87654321
CAFEBABE
DEADBEAF
B16B00B5
A2345678
9ABCDEF0
A5A5A5A5
5A5A5A5A
FFFFFFFF
00000001
87654321
CAFEBABE
DEADBEAF
B16B00B5
A2345678
9ABCDEF0
A5A5A5A5
5A5A5A5A
FFFFFFFF
00000001
87654321
CAFEBABE
DEADBEAF
B16B00B5
A2345678
9ABCDEF0
A5A5A5A5
5A5A5A5A
FFFFFFFF
00000001
87654321
CAFEBABE
DEADBEAF
B16B00B5
A2345678
9ABCDEF0
A5A5A5A5
5A5A5A5A
FFFFFFFF
00000001
87654321
CAFEBABE
DEADBEAF
B16B00B5
A2345678
9ABCDEF0
A5A5A5A5
5A5A5A5A
FFFFFFFF
00000001
87654321
CAFEBABE
DEADBEAF
B16B00B5
A2345678
9ABCDEF0
A5A5A5A5
5A5A5A5A
FFFFFFFF
00000001
87654321
CAFEBABE
DEADBEAF
B16B00B5
A2345678
9ABCDEF0
A5A5A5A5
5A5A5A5A
FFFFFFFF
00000001
87654321
CAFEBABE
DEADBEAF
B16B00B5
A2345678
9ABCDEF0
A5A5A5A5
5A5A5A5A
FFFFFFFF
00000001
87654321
CAFEBABE
DEADBEAF
B16B00B5
A2345678
9ABCDEF0
A5A5A5A5
5A5A5A5A
FFFFFFFF
00000001
87654321
CAFEBABE
DEADBEAF
B16B00B5
A2345678
9ABCDEF0
A5A5A5A5
5A5A5A5A
FFFFFFFF
00000001
87654321
CAFEBABE
DEADBEAF
B16B00B5
A2345678
9ABCDEF0
A5A5A5A5
5A5A5A5A
FFFFFFFF
00000001
87654321
CAFEBABE
DEADBEAF
B16B00B5
A2345678
9ABCDEF0
A5A5A5A5
5A5A5A5A
FFFFFFFF
00000001
87654321
CAFEBABE
DEADBEAF
B16B00B5
A2345678
9ABCDEF0
A5A5A5A5
5A5A5A5A
FFFFFFFF
00000001
87654321
CAFEBABE
DEADBEAF
B16B00B5
A2345678
9ABCDEF0
A5A5A5A5
5A5A5A5A
FFFFFFFF
00000001
87654321
CAFEBABE
DEADBEAF
B16B00B5
A2345678
9ABCDEF0
A5A5A5A5
5A5A5A5A
FFFFFFFF
00000001
87654321
CAFEBABE
DEADBEAF
B16B00B5
A2345678
9ABCDEF0
A5A5A5A5
5A5A5A5A
FFFFFFFF
00000001
87654321
CAFEBABE
DEADBEAF
B16B00B5
A2345678
9ABCDEF0
A5A5A5A5
5A5A5A5A
FFFFFFFF
00000001
87654321
CAFEBABE
DEADBEAF
B16B00B5
A2345678
9ABCDEF0
A5A5A5A5
5A5A5A5A
FFFFFFFF
00000001
87654321
CAFEBABE
DEADBEAF
B16B00B5
A2345678
9ABCDEF0
A5A5A5A5
5A5A5A5A
FFFFFFFF
00000001
87654321
CAFEBABE
DEADBEAF
B16B00B5
A2345678
9ABCDEF0
A5A5A5A5
5A5A5A5A
FFFFFFFF
00000001
87654321
CAFEBABE
DEADBEAF
B16B00B5
A2345678
9ABCDEF0
A5A5A5A5
5A5A5A5A
FFFFFFFF
00000001
87654321
CAFEBABE
DEADBEAF
B16B00B5
A2345678
9ABCDEF0
A5A5A5A5
5A5A5A5A
FFFFFFFF
00000001
87654321
CAFEBABE
DEADBEAF
B16B00B5
A2345678
9ABCDEF0
A5A5A5A5
5A5A5A5A
FFFFFFFF
00000001
87654321
CAFEBABE
DEADBEAF
B16B00B5
A2345678
9ABCDEF0
A5A5A5A5
5A5A5A5A
FFFFFFFF
00000001
87654321
CAFEBABE
DEADBEAF
B16B00B5
A2345678
9ABCDEF0
A5A5A5A5
5A5A5A5A
FFFFFFFF
00000001
87654321
CAFEBABE
DEADBEAF
B16B00B5
A2345678
9ABCDEF0
A5A5A5A5
5A5A5A5A
FFFFFFFF
00000001
87654321
CAFEBABE
DEADBEAF
B16B00B5
A2345678
9ABCDEF0
A5A5A5A5
5A5A5A5A
FFFFFFFF
00000001
87654321
CAFEBABE
DEADBEAF
B16B00B5
A2345678
9ABCDEF0
A5A5A5A5
5A5A5A5A
FFFFFFFF
00000001
87654321
CAFEBABE
DEADBEAF
B16B00B5
A2345678
9ABCDEF0
A5A5A5A5
5A5A5A5A
FFFFFFFF
00000001
87654321
CAFEBABE
DEADBEAF
B16B00B5
A2345678
9ABCDEF0
A5A5A5A5
5A5A5A5A
FFFFFFFF
00000001
87654321
CAFEBABE
DEADBEAF
B16B00B5
A2345678
9ABCDEF0
A5A5A5A5
5A5A5A5A
FFFFFFFF
00000001
87654321
CAFEBABE
DEADBEAF
B16B00B5
A2345678
9ABCDEF0
A5A5A5A5
5A5A5A5A
FFFFFFFF
00000001
87654321
CAFEBABE
DEADBEAF
B16B00B5
A2345678
9ABCDEF0
A5A5A5A5
5A5A5A5A
FFFFFFFF
00000001
87654321
CAFEBABE
DEADBEAF
B16B00B5
A2345678
9ABCDEF0
A5A5A5A5
5A5A5A5A
FFFFFFFF
00000001
87654321
CAFEBABE
DEADBEAF
B16B00B5
A2345678
9ABCDEF0
A5A5A5A5
5A5A5A5A
FFFFFFFF
00000001
87654321
CAFEBABE
DEADBEAF
B16B00B5
A2345678
9ABCDEF0
A5A5A5A5
5A5A5A5A
FFFFFFFF
00000001
87654321
CAFEBABE
DEADBEAF
B16B00B5
A2345678
9ABCDEF0
A5A5A5A5
5A5A5A5A
FFFFFFFF
00000001
87654321
CAFEBABE
DEADBEAF
B16B00B5
A2345678
9ABCDEF0
A5A5A111
5A5A5A5A
FFFFFFFF
00000001
87654321
CAFEBABE
DEADBEAF
B16B00B5
A2345678
9ABCDEF0
A5A5A5A5
5A5A5A5A
FFFFFFFF
00000001
87654321
CAFEBABE
DEADBEAF
B16B00B5
A2345678
9ABCDEF0
A5A5A5A5
5A5A5A5A
FFFFFFFF
00000001
87654321
CAFEBABE
DEADBEAF
B16B00B5
A2345678
9ABCDEF0
A5A5A5A5
5A5A5A5A
FFFFFFFF
00000001
87654321
CAFEBABE
DEADBEAF
B16B00B5
A2345678
9ABCDEF0
A5A5A5A5
5A5A5A5A
FFFFFFFF
00000001
87654321
CAFEBABE
DEADBEAF
B16B00B5
A2345678
9ABCDEF0
A5A5A5A5
5A5A5A5A
FFFFFFFF
00000001
87654321
CAFEBABE
DEADBEAF
B16B00B5
A2345678
9ABCDEF0
A5A5A5A5
5A5A5A5A
FFFFFFFF
00000001
87654321
CAFEBABE
DEADBEAF
B16B00B5
A2345678
9ABCDEF0
A5A5A5A5
5A5A5A5A
FFFFFFFF
00000001
87654321
CAFEBABE
DEADBEAF
B16B00B5
A2345678
9ABCDEF0
A5A5A5A5
5A5A5A5A
FFFFFFFF
00000001
87654321
CAFEBABE
DEADBEAF
B16B00B5
A2345678
9ABCDEF0
A5A5A5A5
5A5A5A5A
FFFFFFFF
00000001
87654321
CAFEBABE
DEADBEAF
B16B00B5
A2345678
9ABCDEF0
A5A5A5A5
5A5A5A5A
FFFFFFFF
00000001
87654321
CAFEBABE
DEADBEAF
B16B00B5
A2345678
9ABCDEF0
A5A5A5A5
5A5A5A5A
FFFFFFFF
00000001
87654321
CAFEBABE
DEADBEAF
B16B00B5
A2345678
9ABCDEF0
A5A5A5A5
5A5A5A5A
FFFFFFFF
00000001
87654321
CAFEBABE
DEADBEAF
B16B00B5
A2345678
9ABCDEF0
A5A5A5A5
5A5A5A5A
FFFFFFFF
00000001
87654321
CAFEBABE
DEADBEAF
B16B00B5
A2345678
9ABCDEF0
A5A5A5A5
5A5A5A5A
FFFFFFFF
00000001
87654321
CAFEBABE
DEADBEAF
B16B00B5
A2345678
9ABCDEF0
A5A5A5A5
5A5A5A5A
FFFFFFFF
00000001
87654321
CAFEBABE
DEADBEAF
B16B00B5
A2345678
9ABCDEF0
A5A5A5A5
5A5A5A5A
FFFFFFFF
00000001
87654321
CAFEBABE
DEADBEAF
B16B00B5
A2345678
9ABCDEF0
A5A5A5A5
5A5A5A5A
FFFFFFFF
00000001
87654321
CAFEBABE
DEADBEAF
B16B00B5
A2345678
9ABCDEF0
A5A5A5A5
5A5A5A5A
FFFFFFFF
00000001
87654321
CAFEBABE
DEADBEAF
B16B00B5
A2345678
9ABCDEF0
A5A5A5A5
5A5A5A5A
FFFFFFFF
00000001
87654321
CAFEBABE
DEADBEAF
B16B00B5
A2345678
9ABCDEF0
A5A5A5A5
5A5A5A5A
FFFFFFFF
00000001
87654321
CAFEBABE
DEADBEAF
B16B00B5
A2345678
9ABCDEF0
A5A5A5A5
5A5A5A5A
FFFFFFFF
00000001
87654321
CAFEBABE
DEADBEAF
B16B00B5
A2345678
9ABCDEF0
A5A5A5A5
5A5A5A5A
FFFFFFFF
00000001
87654321
CAFEBABE
DEADBEAF
B16B00B5
A2345678
9ABCDEF0
A5A5A5A5
5A5A5A5A
FFFFFFFF
00000001
87654321
CAFEBABE
DEADBEAF
B16B00B5
A2345678
9ABCDEF0
A5A5A5A5
5A5A5A5A
FFFFFFFF
00000001
87654321
CAFEBABE
DEADBEAF
B16B00B5
A2345678
9ABCDEF0
A5A5A5A5
5A5A5A5A
FFFFFFFF
00000001
87654321
CAFEBABE
DEADBEAF
B16B00B5
A2345678
9ABCDEF0
A5A5A5A5
5A5A5A5A
FFFFFFFF
00000001
87654321
CAFEBABE
DEADBEAF
B16B00B5
